const unsigned char g_model[] = {
    0x1c, 0x00, 0x00, 0x00, 0x54, 0x46, 0x4c, 0x33, 0x14, 0x00, 0x20, 0x00,
    0x1c, 0x00, 0x18, 0x00, 0x14, 0x00, 0x10, 0x00, 0x0c, 0x00, 0x00, 0x00,
    0x08, 0x00, 0x04, 0x00, 0x14, 0x00, 0x00, 0x00, 0x1c, 0x00, 0x00, 0x00,
    0xa4, 0x00, 0x00, 0x00, 0xfc, 0x00, 0x00, 0x00, 0xbc, 0x1f, 0x00, 0x00,
    0xcc, 0x1f, 0x00, 0x00, 0xc0, 0x28, 0x00, 0x00, 0x03, 0x00, 0x00, 0x00,
    0x01, 0x00, 0x00, 0x00, 0x10, 0x00, 0x00, 0x00, 0x00, 0x00, 0x0a, 0x00,
    0x10, 0x00, 0x0c, 0x00, 0x08, 0x00, 0x04, 0x00, 0x0a, 0x00, 0x00, 0x00,
    0x0c, 0x00, 0x00, 0x00, 0x1c, 0x00, 0x00, 0x00, 0x40, 0x00, 0x00, 0x00,
    0x0f, 0x00, 0x00, 0x00, 0x73, 0x65, 0x72, 0x76, 0x69, 0x6e, 0x67, 0x5f,
    0x64, 0x65, 0x66, 0x61, 0x75, 0x6c, 0x74, 0x00, 0x01, 0x00, 0x00, 0x00,
    0x04, 0x00, 0x00, 0x00, 0x84, 0xff, 0xff, 0xff, 0x11, 0x00, 0x00, 0x00,
    0x04, 0x00, 0x00, 0x00, 0x0d, 0x00, 0x00, 0x00, 0x64, 0x65, 0x6e, 0x73,
    0x65, 0x5f, 0x44, 0x65, 0x6e, 0x73, 0x65, 0x33, 0x38, 0x00, 0x00, 0x00,
    0x01, 0x00, 0x00, 0x00, 0x04, 0x00, 0x00, 0x00, 0x2e, 0xe0, 0xff, 0xff,
    0x04, 0x00, 0x00, 0x00, 0x15, 0x00, 0x00, 0x00, 0x63, 0x6f, 0x6e, 0x76,
    0x31, 0x64, 0x5f, 0x43, 0x6f, 0x6e, 0x76, 0x31, 0x44, 0x31, 0x39, 0x5f,
    0x69, 0x6e, 0x70, 0x75, 0x74, 0x00, 0x00, 0x00, 0x02, 0x00, 0x00, 0x00,
    0x34, 0x00, 0x00, 0x00, 0x04, 0x00, 0x00, 0x00, 0xdc, 0xff, 0xff, 0xff,
    0x14, 0x00, 0x00, 0x00, 0x04, 0x00, 0x00, 0x00, 0x13, 0x00, 0x00, 0x00,
    0x43, 0x4f, 0x4e, 0x56, 0x45, 0x52, 0x53, 0x49, 0x4f, 0x4e, 0x5f, 0x4d,
    0x45, 0x54, 0x41, 0x44, 0x41, 0x54, 0x41, 0x00, 0x08, 0x00, 0x0c, 0x00,
    0x08, 0x00, 0x04, 0x00, 0x08, 0x00, 0x00, 0x00, 0x13, 0x00, 0x00, 0x00,
    0x04, 0x00, 0x00, 0x00, 0x13, 0x00, 0x00, 0x00, 0x6d, 0x69, 0x6e, 0x5f,
    0x72, 0x75, 0x6e, 0x74, 0x69, 0x6d, 0x65, 0x5f, 0x76, 0x65, 0x72, 0x73,
    0x69, 0x6f, 0x6e, 0x00, 0x15, 0x00, 0x00, 0x00, 0xbc, 0x1e, 0x00, 0x00,
    0xb4, 0x1e, 0x00, 0x00, 0x98, 0x1e, 0x00, 0x00, 0x78, 0x1e, 0x00, 0x00,
    0x90, 0x1d, 0x00, 0x00, 0x38, 0x1d, 0x00, 0x00, 0x50, 0x01, 0x00, 0x00,
    0x34, 0x01, 0x00, 0x00, 0x0c, 0x01, 0x00, 0x00, 0xf4, 0x00, 0x00, 0x00,
    0xd4, 0x00, 0x00, 0x00, 0xcc, 0x00, 0x00, 0x00, 0xc4, 0x00, 0x00, 0x00,
    0xbc, 0x00, 0x00, 0x00, 0xb4, 0x00, 0x00, 0x00, 0xac, 0x00, 0x00, 0x00,
    0xa4, 0x00, 0x00, 0x00, 0x9c, 0x00, 0x00, 0x00, 0x94, 0x00, 0x00, 0x00,
    0x74, 0x00, 0x00, 0x00, 0x04, 0x00, 0x00, 0x00, 0x06, 0xe1, 0xff, 0xff,
    0x04, 0x00, 0x00, 0x00, 0x60, 0x00, 0x00, 0x00, 0x10, 0x00, 0x00, 0x00,
    0x00, 0x00, 0x00, 0x00, 0x08, 0x00, 0x0e, 0x00, 0x08, 0x00, 0x04, 0x00,
    0x08, 0x00, 0x00, 0x00, 0x10, 0x00, 0x00, 0x00, 0x24, 0x00, 0x00, 0x00,
    0x00, 0x00, 0x06, 0x00, 0x08, 0x00, 0x04, 0x00, 0x06, 0x00, 0x00, 0x00,
    0x04, 0x00, 0x00, 0x00, 0x00, 0x00, 0x00, 0x00, 0x0c, 0x00, 0x18, 0x00,
    0x14, 0x00, 0x10, 0x00, 0x0c, 0x00, 0x04, 0x00, 0x0c, 0x00, 0x00, 0x00,
    0x91, 0xaf, 0x4c, 0x16, 0xbc, 0xa3, 0x00, 0x15, 0x01, 0x00, 0x00, 0x00,
    0x02, 0x00, 0x00, 0x00, 0x04, 0x00, 0x00, 0x00, 0x06, 0x00, 0x00, 0x00,
    0x32, 0x2e, 0x31, 0x38, 0x2e, 0x30, 0x00, 0x00, 0x72, 0xe1, 0xff, 0xff,
    0x04, 0x00, 0x00, 0x00, 0x10, 0x00, 0x00, 0x00, 0x31, 0x2e, 0x35, 0x2e,
    0x30, 0x00, 0x00, 0x00, 0x00, 0x00, 0x00, 0x00, 0x00, 0x00, 0x00, 0x00,
    0x54, 0xd9, 0xff, 0xff, 0x58, 0xd9, 0xff, 0xff, 0x5c, 0xd9, 0xff, 0xff,
    0x60, 0xd9, 0xff, 0xff, 0x64, 0xd9, 0xff, 0xff, 0x68, 0xd9, 0xff, 0xff,
    0x6c, 0xd9, 0xff, 0xff, 0x70, 0xd9, 0xff, 0xff, 0xae, 0xe1, 0xff, 0xff,
    0x04, 0x00, 0x00, 0x00, 0x10, 0x00, 0x00, 0x00, 0x01, 0x00, 0x00, 0x00,
    0x01, 0x00, 0x00, 0x00, 0xc8, 0x00, 0x00, 0x00, 0x06, 0x00, 0x00, 0x00,
    0xca, 0xe1, 0xff, 0xff, 0x04, 0x00, 0x00, 0x00, 0x08, 0x00, 0x00, 0x00,
    0xff, 0xff, 0xff, 0xff, 0x29, 0x01, 0x00, 0x00, 0xde, 0xe1, 0xff, 0xff,
    0x04, 0x00, 0x00, 0x00, 0x18, 0x00, 0x00, 0x00, 0x44, 0x2b, 0xfb, 0x3c,
    0x72, 0x29, 0x89, 0xbc, 0xd0, 0x2e, 0xaa, 0x3d, 0xc0, 0xf3, 0x36, 0xbc,
    0x3d, 0xc2, 0x3c, 0xbc, 0x29, 0x9b, 0x35, 0x3d, 0x02, 0xe2, 0xff, 0xff,
    0x04, 0x00, 0x00, 0x00, 0x0c, 0x00, 0x00, 0x00, 0x1e, 0xe9, 0x19, 0x3e,
    0x20, 0x9a, 0x2d, 0xbe, 0x74, 0x6e, 0x67, 0x3d, 0x1a, 0xe2, 0xff, 0xff,
    0x04, 0x00, 0x00, 0x00, 0xd8, 0x1b, 0x00, 0x00, 0x8d, 0xd7, 0x4d, 0x3e,
    0x23, 0xc4, 0xc4, 0xbd, 0x27, 0xea, 0x3a, 0x3e, 0x38, 0x11, 0x1c, 0x3e,
    0xf9, 0x16, 0x2e, 0xbe, 0xd4, 0xe2, 0x37, 0x3e, 0x3c, 0xb7, 0x63, 0xbc,
    0x98, 0x1e, 0x29, 0xbe, 0xe3, 0x43, 0x6e, 0x3e, 0x77, 0xc0, 0x51, 0xbd,
    0xbd, 0x1d, 0xde, 0xbc, 0x86, 0x6d, 0x7d, 0x3c, 0xb8, 0x69, 0x01, 0xbe,
    0xe1, 0xd7, 0xbe, 0xbc, 0x0e, 0xe4, 0x7e, 0x3e, 0xc3, 0xac, 0x52, 0xbd,
    0x37, 0x9f, 0xb0, 0x3d, 0x29, 0x7f, 0x08, 0x3e, 0xa5, 0x17, 0xd4, 0xbd,
    0xb5, 0xc2, 0x12, 0xbd, 0x52, 0x9a, 0x5d, 0x3e, 0x9c, 0xbf, 0x69, 0x3c,
    0x8f, 0x1b, 0x86, 0x3d, 0x52, 0xf2, 0x25, 0x3e, 0xe6, 0xab, 0xf9, 0xbd,
    0x50, 0x41, 0x89, 0xbd, 0x90, 0x7e, 0xf6, 0x3d, 0xd0, 0xc9, 0xbf, 0xbd,
    0x3d, 0x24, 0x14, 0xbe, 0x2f, 0x00, 0x0c, 0x3e, 0x14, 0x04, 0x27, 0x3d,
    0x8e, 0x94, 0x0b, 0xbd, 0x92, 0xe1, 0xef, 0x3d, 0x28, 0x7b, 0x28, 0xbd,
    0x0a, 0xc7, 0x70, 0xbb, 0xa6, 0x6c, 0x10, 0x3e, 0x85, 0x08, 0x49, 0x3e,
    0x3b, 0x63, 0xe6, 0xbc, 0x03, 0x71, 0x03, 0x3e, 0x1c, 0x8d, 0x96, 0x3c,
    0xb7, 0xf4, 0x21, 0xbc, 0xdc, 0xba, 0xef, 0x3d, 0x75, 0xe0, 0x9a, 0x3c,
    0x71, 0xf9, 0x1e, 0x3e, 0xa3, 0xba, 0xcc, 0x3d, 0x6e, 0x24, 0xf3, 0x3d,
    0x21, 0x4d, 0xa6, 0x3d, 0x99, 0xbc, 0x4d, 0x3e, 0x06, 0xb9, 0x71, 0x3d,
    0x6e, 0x76, 0x86, 0xbd, 0xb6, 0xe9, 0x18, 0x3e, 0xf1, 0x84, 0x07, 0x3e,
    0x2c, 0x6c, 0x01, 0x3e, 0x15, 0xcd, 0x2d, 0x3e, 0x56, 0x3e, 0x14, 0x3e,
    0x22, 0x22, 0x81, 0x3a, 0xef, 0xa3, 0xb4, 0x3d, 0x89, 0x0a, 0x0a, 0x3e,
    0x0b, 0xde, 0xf1, 0x3c, 0x84, 0x54, 0x80, 0x3d, 0x6a, 0x4f, 0xf2, 0x3d,
    0x6b, 0x78, 0xcd, 0x3d, 0x57, 0xe9, 0x21, 0x3e, 0x41, 0x9e, 0x2f, 0x3d,
    0x20, 0x1d, 0x28, 0x3e, 0xa6, 0x20, 0x43, 0xbc, 0xea, 0x5c, 0x8b, 0x3e,
    0x68, 0x5a, 0x49, 0x3d, 0x65, 0x46, 0x6c, 0x3d, 0x45, 0xf0, 0x59, 0xbb,
    0xdc, 0x17, 0xf5, 0xbc, 0x99, 0xc2, 0x44, 0x3e, 0xaf, 0xe3, 0x2c, 0x3e,
    0xfe, 0x6a, 0x02, 0x3e, 0x36, 0x9f, 0xa3, 0x3d, 0xca, 0xd1, 0x94, 0x3e,
    0xd1, 0xe7, 0x9f, 0xbd, 0x21, 0xf3, 0x78, 0x3d, 0x06, 0x9e, 0x33, 0x3e,
    0x00, 0x77, 0xfc, 0x3c, 0xcb, 0xc9, 0x0e, 0x3e, 0x25, 0x06, 0x72, 0x3e,
    0x78, 0xf4, 0x0b, 0xbd, 0xea, 0x24, 0xae, 0x3d, 0x28, 0x0e, 0x15, 0x3e,
    0xaf, 0x0d, 0xc2, 0xbc, 0xb2, 0x27, 0x18, 0x3e, 0x69, 0xe6, 0xce, 0x3d,
    0xb4, 0x6c, 0x8c, 0x3c, 0x78, 0xcc, 0x13, 0x3e, 0xf4, 0xc0, 0x0c, 0x3e,
    0x34, 0xa1, 0x96, 0xbb, 0x83, 0x49, 0x0f, 0x3e, 0x63, 0xec, 0x9a, 0x3e,
    0xdd, 0xc8, 0xc0, 0xba, 0x0d, 0x2a, 0x15, 0x3e, 0x14, 0x1d, 0x9a, 0x3e,
    0xde, 0x19, 0xd7, 0xbc, 0xcd, 0x69, 0xb8, 0x3b, 0xf6, 0x79, 0x2e, 0x3e,
    0x8a, 0x9a, 0xf0, 0xbd, 0x2a, 0xac, 0x11, 0x3e, 0x69, 0x8a, 0x49, 0x3e,
    0x63, 0x49, 0x4f, 0xbd, 0x67, 0x02, 0x20, 0x3e, 0xa5, 0x45, 0x52, 0x3e,
    0x38, 0x40, 0x1c, 0xbb, 0xb8, 0x9a, 0x40, 0x3d, 0x78, 0x60, 0x81, 0x3d,
    0xfd, 0x1e, 0x3b, 0xbe, 0x07, 0xcd, 0xa1, 0x3d, 0x4f, 0xd5, 0x2d, 0x3e,
    0x4b, 0xd5, 0x19, 0xbd, 0x08, 0x6d, 0xd9, 0x3d, 0x20, 0x47, 0x0d, 0x3e,
    0x36, 0x44, 0xa5, 0xbd, 0xe0, 0xb6, 0xd8, 0x3d, 0x6f, 0x91, 0x23, 0x3e,
    0x4b, 0xed, 0x8d, 0x3c, 0xe9, 0x6f, 0x81, 0x3b, 0x01, 0x28, 0x2e, 0x3e,
    0x9b, 0x51, 0x9d, 0xbd, 0xd3, 0xf8, 0x5b, 0x3e, 0xee, 0x75, 0x33, 0x3e,
    0xda, 0x1c, 0x32, 0xbe, 0x46, 0x37, 0x5d, 0x3e, 0xa3, 0x48, 0x98, 0x3e,
    0x86, 0x3c, 0x46, 0xbe, 0x25, 0x90, 0x13, 0x3e, 0x9a, 0x36, 0xd7, 0x3d,
    0x35, 0x44, 0x26, 0xbe, 0x2b, 0xb1, 0x16, 0x3e, 0x03, 0x33, 0x58, 0x3e,
    0x71, 0x6b, 0x64, 0xbe, 0x15, 0xfd, 0x6a, 0x3d, 0x51, 0xfd, 0x52, 0x3e,
    0xc2, 0xab, 0x57, 0xbe, 0x6e, 0x60, 0x1c, 0x3d, 0x65, 0x6b, 0x19, 0x3e,
    0xe0, 0x6b, 0x30, 0xbe, 0x8e, 0x35, 0xea, 0x3d, 0x64, 0x4c, 0x3e, 0x3e,
    0xa6, 0xcf, 0x74, 0xbe, 0x23, 0x3f, 0x29, 0x3e, 0x26, 0xf8, 0x49, 0x3e,
    0x5f, 0x83, 0x24, 0xbe, 0x76, 0xe0, 0xb3, 0xbb, 0x57, 0x77, 0xe9, 0x3d,
    0x09, 0x98, 0x2b, 0xbe, 0xdc, 0x01, 0x45, 0x3e, 0x79, 0x8d, 0x1f, 0x3e,
    0x43, 0xb3, 0xb4, 0xbd, 0x30, 0x04, 0xb5, 0xbc, 0x93, 0x67, 0x5f, 0x3e,
    0x69, 0xcf, 0xdc, 0xbd, 0xce, 0xa1, 0x63, 0x3e, 0xe7, 0x30, 0x1e, 0x3e,
    0xd5, 0x6f, 0x63, 0xbe, 0x8c, 0x58, 0xcc, 0xbc, 0x4e, 0x8e, 0x41, 0x3e,
    0x47, 0xc1, 0x00, 0xbd, 0x5c, 0xcc, 0xf8, 0xbc, 0xef, 0x04, 0x43, 0x3e,
    0x46, 0x0e, 0x5f, 0xbc, 0x69, 0x1d, 0x89, 0x3e, 0xf5, 0x4b, 0x91, 0x3e,
    0xae, 0x12, 0xb1, 0xbc, 0x0c, 0xc5, 0x98, 0xbc, 0x6e, 0x4d, 0x33, 0x3e,
    0x3f, 0xfb, 0xe4, 0x3c, 0xf6, 0xe3, 0xd2, 0x3c, 0x99, 0xa7, 0x95, 0x3d,
    0xb7, 0x99, 0x12, 0x3d, 0xcd, 0xd3, 0x72, 0x3e, 0x99, 0x8a, 0x97, 0x3d,
    0x35, 0xcf, 0x56, 0xbd, 0x7a, 0x7e, 0x11, 0x3e, 0x34, 0xae, 0x01, 0x3e,
    0x8e, 0xd1, 0xf0, 0xbd, 0xbd, 0x9c, 0xae, 0x3d, 0xcb, 0x76, 0x07, 0x3e,
    0x96, 0x2a, 0x35, 0xbe, 0xf8, 0x34, 0x59, 0x3e, 0x56, 0xcc, 0x67, 0x3e,
    0x1b, 0x7b, 0xfd, 0xbb, 0xfb, 0x69, 0x9c, 0x3d, 0xb0, 0x4d, 0xd6, 0xbc,
    0x83, 0x98, 0x8d, 0x3d, 0x7f, 0x29, 0x1a, 0x3e, 0x41, 0x22, 0x5d, 0x3e,
    0xd0, 0xba, 0xb7, 0x3d, 0x0c, 0x73, 0x5e, 0x3d, 0xb8, 0x0f, 0xba, 0x3d,
    0xa9, 0xd0, 0xa8, 0x3a, 0x48, 0x86, 0x0b, 0x3c, 0x9b, 0xf4, 0x5e, 0x3e,
    0xde, 0x38, 0xba, 0x3c, 0xe7, 0x79, 0x1f, 0x3e, 0x5a, 0x17, 0x23, 0x3e,
    0x51, 0xa3, 0x5d, 0xbd, 0x05, 0x21, 0x0d, 0x3a, 0x58, 0x99, 0x5c, 0x3d,
    0xc9, 0x4a, 0x10, 0x3c, 0xbd, 0x28, 0x29, 0xbd, 0xe3, 0x70, 0xc8, 0xbc,
    0x52, 0x3e, 0xcb, 0xbd, 0xd6, 0x62, 0x60, 0x3d, 0xb1, 0x15, 0x3b, 0x3e,
    0x8d, 0x5e, 0x06, 0xbe, 0x35, 0xcb, 0xad, 0xbd, 0x54, 0xb5, 0x7d, 0x3e,
    0x3e, 0xbd, 0xdf, 0x3c, 0x59, 0x3f, 0xb2, 0xbc, 0x9d, 0x0f, 0xde, 0x3c,
    0x8c, 0x1c, 0x14, 0xbd, 0x87, 0x48, 0xef, 0xbc, 0x9c, 0x01, 0x13, 0x3e,
    0x2d, 0x50, 0x0b, 0xbc, 0x44, 0x81, 0x5e, 0x3d, 0x34, 0x6a, 0xb9, 0x3d,
    0xf7, 0x83, 0x00, 0x3e, 0x93, 0x72, 0x63, 0x3d, 0x37, 0x92, 0xac, 0x3d,
    0x02, 0xe2, 0xcb, 0xbd, 0x25, 0x85, 0x22, 0x3c, 0x14, 0x40, 0x06, 0x3e,
    0x2d, 0x81, 0x5a, 0xbd, 0x8c, 0x1e, 0x0e, 0x3d, 0x58, 0x7a, 0x55, 0x3e,
    0x9e, 0xcc, 0x32, 0xbd, 0xdc, 0xa0, 0x1c, 0xbd, 0x40, 0x6c, 0x22, 0x3e,
    0xb0, 0x49, 0x2e, 0xbc, 0xf9, 0x20, 0xdd, 0x3c, 0x47, 0x71, 0x55, 0x3e,
    0x78, 0xae, 0x91, 0xbc, 0xc8, 0xf8, 0x1a, 0xbd, 0x31, 0x9c, 0x5d, 0x3e,
    0x7a, 0x35, 0x7e, 0xbb, 0xa3, 0x38, 0x3a, 0xbd, 0x68, 0x9e, 0x58, 0x3e,
    0x20, 0x10, 0xf3, 0x3b, 0x31, 0xd8, 0x0c, 0xbe, 0xad, 0x3e, 0x49, 0x3d,
    0xd8, 0x86, 0x1a, 0x3c, 0xba, 0x43, 0xe6, 0x3d, 0x2e, 0x18, 0x3d, 0x3e,
    0xbd, 0x60, 0x03, 0xbd, 0x95, 0x42, 0x40, 0x3d, 0x28, 0x40, 0xf6, 0x3c,
    0xe6, 0xb3, 0xd4, 0x3c, 0x69, 0xed, 0x96, 0x3c, 0xa1, 0x8d, 0x1a, 0x3e,
    0x71, 0x68, 0xcd, 0x3b, 0xc2, 0x7e, 0x18, 0xbd, 0x71, 0x0e, 0x60, 0x3e,
    0x66, 0x52, 0x03, 0x3e, 0x81, 0xac, 0x5b, 0x3b, 0x0e, 0xc6, 0x52, 0x3e,
    0x61, 0xd9, 0xc3, 0xbd, 0xe5, 0x88, 0x04, 0x3e, 0xdc, 0x39, 0x26, 0x3e,
    0x38, 0x03, 0x35, 0x3d, 0x78, 0xec, 0x92, 0xbb, 0xf2, 0x39, 0x78, 0x3e,
    0x25, 0xf1, 0xa4, 0xbb, 0x52, 0x85, 0x71, 0x3d, 0x9c, 0x41, 0x80, 0x3e,
    0x9f, 0x4e, 0x90, 0x3d, 0xfd, 0x20, 0xa3, 0xbc, 0xac, 0x8a, 0x6e, 0x3e,
    0x97, 0x66, 0xd6, 0x3c, 0x0d, 0x01, 0x18, 0x3c, 0x1e, 0x50, 0xb8, 0x3d,
    0x44, 0x82, 0xef, 0x3b, 0x94, 0x34, 0x4b, 0x3d, 0x85, 0x74, 0x83, 0x3e,
    0xa0, 0x2a, 0x32, 0xbe, 0x0d, 0x17, 0x17, 0x3c, 0xb5, 0xc4, 0x73, 0x3e,
    0x6f, 0x7b, 0xe6, 0x3c, 0x28, 0x38, 0x25, 0xbd, 0xe8, 0xb0, 0x9a, 0x3e,
    0x1f, 0x2d, 0xb9, 0xbd, 0x51, 0x0a, 0xc9, 0xbc, 0x03, 0xca, 0xb5, 0x3d,
    0xbc, 0x76, 0xbc, 0x3c, 0xc8, 0x5c, 0x34, 0xbd, 0xe4, 0x3e, 0x39, 0x3e,
    0x2c, 0x09, 0xd9, 0xbd, 0xc8, 0x29, 0xa2, 0x3c, 0xea, 0x35, 0xf8, 0x3d,
    0x08, 0x47, 0xa8, 0xbd, 0xf5, 0x04, 0x8f, 0x3d, 0x1f, 0xe8, 0x21, 0x3e,
    0x1e, 0x8e, 0x3c, 0xbd, 0xfd, 0x4a, 0x19, 0xbc, 0xd9, 0xaa, 0x91, 0xbd,
    0xe0, 0xe8, 0x8d, 0x3c, 0xbf, 0x51, 0x71, 0x3d, 0x17, 0x18, 0x71, 0x3d,
    0xc8, 0xf1, 0xd8, 0xbd, 0xd4, 0xca, 0x5e, 0xbd, 0xd6, 0x09, 0x75, 0xbc,
    0x97, 0x1b, 0x04, 0xbe, 0x08, 0x40, 0x0f, 0xbe, 0x65, 0x35, 0x54, 0xbd,
    0x05, 0x8d, 0x97, 0xbd, 0x40, 0xba, 0xa6, 0xbb, 0xca, 0xb6, 0x87, 0xbd,
    0xf3, 0x02, 0x6b, 0xbb, 0x5f, 0xfe, 0x83, 0xbd, 0xa5, 0xea, 0xaa, 0x3d,
    0xf3, 0x5b, 0x3a, 0x3d, 0xe3, 0xe8, 0xd0, 0x3d, 0x09, 0xc7, 0x05, 0x3d,
    0x5b, 0xd3, 0xcc, 0xbd, 0x1f, 0xf7, 0x13, 0x3c, 0x0e, 0x1c, 0x66, 0xbc,
    0xb9, 0x52, 0x0b, 0xbe, 0x33, 0x24, 0x05, 0x3d, 0x4b, 0xb3, 0x65, 0x3d,
    0x24, 0x47, 0xf7, 0xbd, 0x73, 0x18, 0xf0, 0x3d, 0x50, 0xbc, 0xbc, 0x3d,
    0xdc, 0xb0, 0x86, 0x3c, 0xa2, 0xb6, 0xce, 0xbd, 0xc4, 0x4c, 0xc9, 0xbd,
    0x22, 0xaa, 0xcc, 0xbc, 0x71, 0xf2, 0x0b, 0x3d, 0x2f, 0x68, 0xd2, 0x3c,
    0x18, 0x49, 0x3c, 0xbd, 0x39, 0x47, 0xee, 0x3c, 0xd4, 0xd5, 0xf8, 0xbc,
    0x0a, 0xa4, 0x82, 0x3b, 0x6e, 0x95, 0x5f, 0xbd, 0xd2, 0x8e, 0xd6, 0xbc,
    0x29, 0xa6, 0xd9, 0x3d, 0x8f, 0x20, 0x1e, 0xbe, 0x07, 0x97, 0x93, 0xbd,
    0xbb, 0x21, 0xd6, 0xbd, 0x41, 0x12, 0x0f, 0xbd, 0xfa, 0x54, 0x19, 0x3a,
    0x9e, 0xb6, 0x0c, 0xbe, 0xca, 0x28, 0xfe, 0x3c, 0xa4, 0x9d, 0xc6, 0xbc,
    0x53, 0xb2, 0x14, 0xbe, 0x15, 0xcb, 0xdd, 0xbc, 0xa8, 0x07, 0xcc, 0xbd,
    0xe8, 0xdb, 0xe9, 0x3d, 0x4b, 0x0e, 0x31, 0x3d, 0xc2, 0x8a, 0x94, 0x3d,
    0x18, 0x25, 0xa0, 0x3d, 0xdf, 0x7f, 0xb2, 0x3c, 0xa5, 0x0d, 0x12, 0xbd,
    0xff, 0x11, 0x2d, 0xbe, 0x04, 0x47, 0x6c, 0xbd, 0xb0, 0x97, 0x20, 0x3d,
    0xb4, 0x43, 0xa1, 0xbd, 0x02, 0x62, 0x5d, 0xbd, 0x74, 0x0a, 0xfe, 0xbd,
    0xae, 0x6c, 0x3e, 0xbd, 0xe7, 0x7f, 0x52, 0x3c, 0x74, 0x6e, 0x83, 0x3d,
    0x4b, 0xd3, 0xa2, 0x3b, 0x10, 0xff, 0x48, 0x3d, 0x5b, 0x20, 0x52, 0xbd,
    0xda, 0x58, 0x6c, 0xbd, 0xa2, 0x9f, 0x16, 0x3e, 0xa9, 0x7e, 0x1e, 0x3d,
    0xa4, 0xde, 0x09, 0xbd, 0x1b, 0x97, 0xdd, 0xbd, 0xbc, 0x69, 0x5a, 0x3d,
    0x04, 0x4d, 0x04, 0x3e, 0x3e, 0x1f, 0xd3, 0x3d, 0xa7, 0xa2, 0xe9, 0x3d,
    0x3c, 0x54, 0x09, 0xbd, 0xc1, 0xa8, 0xb9, 0x3d, 0x88, 0x05, 0x6b, 0xbd,
    0xa4, 0xfb, 0xcc, 0x3d, 0x62, 0xfd, 0xe6, 0xbd, 0x94, 0xd3, 0x1c, 0x3b,
    0x80, 0x32, 0x44, 0xbb, 0x0d, 0xf4, 0xf8, 0xbd, 0x21, 0x97, 0x99, 0xbd,
    0x15, 0xdc, 0x14, 0x3d, 0x0f, 0x4b, 0x53, 0xbd, 0xf9, 0xee, 0xa7, 0x3c,
    0xc3, 0x4a, 0x7a, 0xbd, 0xce, 0x7c, 0xea, 0x3c, 0xf9, 0xc4, 0xa8, 0x3d,
    0xab, 0x32, 0x21, 0xbe, 0x7d, 0x17, 0x79, 0x3c, 0x1f, 0xbc, 0x29, 0x3d,
    0x45, 0x97, 0x5f, 0xbd, 0x09, 0x95, 0xeb, 0x3d, 0x02, 0x88, 0x7c, 0x3d,
    0x3c, 0xae, 0xcb, 0xbd, 0x4a, 0x54, 0x8d, 0xbd, 0xc5, 0x5e, 0x6f, 0xbd,
    0xfc, 0x17, 0x4f, 0xbd, 0x11, 0x9b, 0xcf, 0x3d, 0xaf, 0x5b, 0xb9, 0xbc,
    0x94, 0x22, 0x44, 0xbd, 0x0f, 0xb7, 0xa3, 0x3d, 0x9d, 0x91, 0x6b, 0xbd,
    0x26, 0x0b, 0xb7, 0xbd, 0xac, 0x4a, 0x0a, 0x3e, 0xbf, 0x5a, 0xa3, 0xbd,
    0x91, 0x21, 0x09, 0xbe, 0xde, 0xd8, 0x00, 0xbe, 0xec, 0x64, 0x5f, 0xbd,
    0x4e, 0x1b, 0x74, 0x3d, 0x8d, 0x73, 0xfc, 0xbc, 0x97, 0x1b, 0xc3, 0xbd,
    0x4e, 0x80, 0x55, 0x3d, 0xe4, 0xda, 0x5a, 0xbc, 0xb0, 0xaa, 0xec, 0xbd,
    0xbe, 0xd9, 0x2b, 0x3d, 0x36, 0x94, 0xe0, 0xbc, 0xdd, 0x4f, 0xbf, 0xbd,
    0x2c, 0xe7, 0x0e, 0xbe, 0x73, 0x77, 0x9c, 0xbd, 0x2b, 0xbc, 0x32, 0xbd,
    0x95, 0xae, 0x19, 0x3e, 0x5c, 0x34, 0xa6, 0x3c, 0x7c, 0x64, 0xa1, 0x3b,
    0x03, 0x61, 0xf4, 0x3c, 0x8e, 0x68, 0x70, 0x3c, 0x2b, 0xa3, 0xbc, 0x3d,
    0x2b, 0x52, 0xb8, 0xbd, 0xd6, 0xa4, 0x25, 0x3d, 0xbf, 0x8e, 0x97, 0xbd,
    0x0c, 0xbb, 0x1b, 0xbc, 0xff, 0xc4, 0xbc, 0xbd, 0xa8, 0xa4, 0xb3, 0x3d,
    0x9e, 0x79, 0x01, 0xbe, 0xe4, 0x86, 0xca, 0xbb, 0x83, 0x18, 0xf4, 0x3d,
    0xee, 0x04, 0xa2, 0x3b, 0x14, 0xef, 0xe1, 0x3c, 0xa6, 0x23, 0x7c, 0xbd,
    0xb5, 0x1d, 0xc3, 0xbd, 0x11, 0xbe, 0x19, 0xbb, 0x2e, 0xc2, 0x7a, 0x3d,
    0x84, 0x33, 0x29, 0xbd, 0xfe, 0x0e, 0xb1, 0xbd, 0xb4, 0x5d, 0x88, 0x3d,
    0x23, 0xf0, 0xb4, 0xbc, 0x5c, 0x86, 0x0e, 0x3e, 0xc6, 0xf8, 0xa4, 0xbd,
    0xdd, 0xb8, 0xae, 0xbd, 0x9b, 0x35, 0x9e, 0xbc, 0xaf, 0x97, 0xac, 0xbd,
    0xcc, 0x1b, 0xbb, 0xbd, 0xac, 0x83, 0xb7, 0xbb, 0xeb, 0xe5, 0xdc, 0xbd,
    0x4d, 0x13, 0x18, 0xbd, 0xb6, 0xc2, 0x99, 0xbd, 0x39, 0x72, 0xc3, 0xbd,
    0xa3, 0x70, 0xaf, 0x3c, 0x4b, 0x30, 0xfd, 0x3d, 0x7b, 0xdc, 0x9b, 0x3d,
    0x8d, 0x64, 0xa2, 0xbc, 0x06, 0xfd, 0x0a, 0x3e, 0xc0, 0xc4, 0xc4, 0xbd,
    0xbc, 0xe7, 0xb6, 0xbd, 0x88, 0x29, 0xc0, 0x3c, 0x6d, 0x35, 0x56, 0xbd,
    0xce, 0x99, 0x8b, 0x3c, 0x78, 0x04, 0x16, 0xbe, 0x95, 0x14, 0x6d, 0xbd,
    0xae, 0x49, 0xa9, 0xbd, 0xc2, 0xfb, 0x05, 0x3e, 0x32, 0xea, 0x8c, 0xbd,
    0xdb, 0xf3, 0x41, 0x3d, 0x45, 0xb3, 0xd2, 0xbc, 0xe2, 0x7d, 0xa4, 0x3d,
    0xdd, 0xc0, 0xc9, 0x3c, 0x09, 0xdd, 0x90, 0xba, 0xd5, 0xa9, 0xe1, 0xbd,
    0x4c, 0xa4, 0x31, 0xbe, 0xf3, 0x52, 0xa9, 0xbd, 0x01, 0xf9, 0x39, 0xbc,
    0x05, 0xc6, 0x09, 0x3d, 0x35, 0x67, 0x22, 0xbd, 0xd6, 0xfe, 0x05, 0x3e,
    0xf1, 0x3b, 0x00, 0x3e, 0xc2, 0x6f, 0x6c, 0xbc, 0x8b, 0x61, 0x82, 0xbd,
    0xf7, 0x86, 0xa6, 0x3d, 0x0c, 0x2d, 0x51, 0x3d, 0x9d, 0xda, 0xeb, 0xbd,
    0x7d, 0x85, 0xfd, 0xbd, 0x2d, 0xa4, 0xd1, 0x3a, 0xeb, 0x0f, 0x53, 0x3d,
    0x82, 0x32, 0x9b, 0x3c, 0x43, 0x35, 0x55, 0xbd, 0x52, 0x02, 0xa9, 0x3d,
    0xea, 0x83, 0xb6, 0x3b, 0x03, 0x5b, 0x85, 0x3d, 0x5e, 0x47, 0x8d, 0xbd,
    0x09, 0xd2, 0x80, 0x3c, 0xa3, 0xe4, 0xaa, 0xbd, 0x7d, 0x1c, 0x68, 0x3c,
    0x3c, 0x66, 0x00, 0xbe, 0x54, 0xb4, 0xc3, 0x3d, 0xc0, 0x48, 0xe5, 0x3d,
    0xdf, 0x27, 0xa2, 0xbd, 0x01, 0xce, 0x22, 0xbc, 0x97, 0x8e, 0x20, 0xbe,
    0x3c, 0xa8, 0x24, 0x3d, 0x42, 0x6a, 0xce, 0x3c, 0x32, 0x45, 0x7c, 0x3d,
    0x6e, 0xf7, 0x83, 0xbd, 0xa5, 0x81, 0x4b, 0x3d, 0xc2, 0xc4, 0x18, 0xbe,
    0xe3, 0xc7, 0xc9, 0xbb, 0xc2, 0xef, 0x8e, 0x3d, 0xdb, 0xdd, 0xdd, 0xbc,
    0xd2, 0xaf, 0x4a, 0x3d, 0xab, 0x84, 0x9e, 0x3d, 0x79, 0x96, 0x8e, 0xbd,
    0x7c, 0xfd, 0x51, 0x3d, 0x89, 0x5c, 0xb5, 0xbd, 0xbf, 0x52, 0xbd, 0x3d,
    0xbf, 0x60, 0xb5, 0xbd, 0xdf, 0x55, 0x91, 0x3d, 0x4e, 0x0b, 0xa2, 0xbd,
    0x45, 0xee, 0x15, 0xbd, 0xfb, 0x37, 0xbe, 0xbd, 0x55, 0x97, 0xa6, 0xbd,
    0x34, 0x46, 0x35, 0xbd, 0x58, 0x1a, 0x79, 0xbc, 0xdd, 0x8b, 0xe5, 0xba,
    0x1f, 0xdf, 0xb2, 0x3c, 0xc8, 0xdb, 0x7f, 0x3d, 0x40, 0x63, 0xe1, 0xbd,
    0x97, 0xa9, 0x9a, 0xbd, 0xc9, 0xbc, 0x25, 0xbe, 0x75, 0x86, 0x31, 0xbe,
    0xed, 0xcd, 0x12, 0xbd, 0x09, 0x9b, 0x01, 0x3d, 0x4c, 0xe7, 0x13, 0x3b,
    0xe3, 0xc3, 0xc7, 0x3d, 0x2a, 0xdd, 0xbf, 0xbb, 0xa7, 0x9f, 0x04, 0xbc,
    0x33, 0xc5, 0xe9, 0xbd, 0x72, 0x02, 0xa6, 0xbd, 0xc6, 0x0e, 0xac, 0x3c,
    0xfe, 0x82, 0x88, 0x3d, 0xaf, 0xe5, 0x5f, 0xbd, 0x56, 0x4b, 0xe0, 0x3d,
    0xfb, 0x0e, 0x4b, 0x3d, 0xf6, 0x56, 0x18, 0x3c, 0xdb, 0x95, 0x82, 0x3d,
    0xf7, 0xed, 0x8f, 0xbb, 0x3e, 0x6e, 0xbf, 0xbc, 0x01, 0x67, 0x9c, 0xbd,
    0xab, 0x10, 0xb1, 0xbd, 0x50, 0xf8, 0xaf, 0x3d, 0x9e, 0xd9, 0x70, 0x3d,
    0xd6, 0x12, 0x70, 0xbd, 0x25, 0x7b, 0xb9, 0x3c, 0xbf, 0x65, 0xed, 0xbc,
    0xd5, 0xd7, 0x15, 0xbd, 0x41, 0x60, 0xfb, 0xbc, 0xfa, 0x87, 0x60, 0xbd,
    0x8e, 0x48, 0x1d, 0xbd, 0x80, 0xab, 0x04, 0x3d, 0x30, 0xc5, 0xb4, 0xbd,
    0x5c, 0xe0, 0xb6, 0xbc, 0x0a, 0xa3, 0xa9, 0xbd, 0x92, 0x98, 0xa8, 0x3c,
    0xce, 0xc8, 0x68, 0x3d, 0x41, 0xfd, 0xb3, 0xbd, 0x8c, 0xc8, 0xd2, 0xbd,
    0x1f, 0xaa, 0xf3, 0xbd, 0xa3, 0x47, 0xc5, 0x3d, 0xf6, 0x17, 0xe9, 0x3d,
    0x4e, 0x99, 0x95, 0x3d, 0x40, 0xc2, 0x62, 0xbd, 0xab, 0x89, 0x68, 0xbb,
    0x29, 0x2e, 0x69, 0xbd, 0x23, 0x92, 0x6f, 0xbb, 0x5b, 0x83, 0x2c, 0x3c,
    0x17, 0x79, 0xf8, 0xbb, 0x37, 0xa4, 0x23, 0xbc, 0x01, 0x7a, 0x0e, 0x3e,
    0x96, 0x49, 0x46, 0x3d, 0x70, 0x64, 0x69, 0x3d, 0xda, 0xf8, 0x9d, 0x3c,
    0x38, 0xd7, 0x84, 0xbd, 0xfe, 0x64, 0x9b, 0x3c, 0xa5, 0x9d, 0x0c, 0x3e,
    0x0f, 0xc7, 0x52, 0x3e, 0xf8, 0xee, 0x50, 0xbe, 0x52, 0xfa, 0x55, 0x3e,
    0x96, 0x70, 0x38, 0x3e, 0x0e, 0xbf, 0x14, 0xbe, 0x24, 0x5f, 0x23, 0x3e,
    0xf4, 0xa5, 0x00, 0x3e, 0x80, 0x41, 0x52, 0xbd, 0x7d, 0x3d, 0x6a, 0x3e,
    0x7d, 0xc6, 0xf3, 0x3d, 0x6c, 0x24, 0xca, 0x3b, 0xc7, 0xc3, 0x80, 0x3e,
    0x92, 0xd3, 0x65, 0xbc, 0x0b, 0xe1, 0xd9, 0xbd, 0x51, 0xc6, 0xa4, 0x3d,
    0x2d, 0xdd, 0x1b, 0x3e, 0x5b, 0xbe, 0xfc, 0xbd, 0x24, 0x26, 0x65, 0x3e,
    0xd5, 0x2c, 0x3b, 0x3e, 0x76, 0xd8, 0x35, 0xbd, 0x5e, 0x95, 0xf2, 0x3d,
    0x13, 0x22, 0x2a, 0x3e, 0x35, 0xf6, 0xbd, 0xbb, 0x82, 0x7a, 0x89, 0x3e,
    0xe3, 0x94, 0xe8, 0x3d, 0xa5, 0x87, 0xa8, 0x3c, 0x6d, 0x18, 0xbc, 0x3d,
    0xf0, 0x7d, 0xb1, 0x3d, 0x07, 0x0f, 0x3b, 0xbd, 0x00, 0x1c, 0x30, 0x3e,
    0x99, 0x0e, 0xdc, 0x3b, 0x03, 0x04, 0x5e, 0xbc, 0xd6, 0x9d, 0xdd, 0x3c,
    0xcd, 0x3d, 0x34, 0x3d, 0x97, 0x69, 0x35, 0x3d, 0xe9, 0x12, 0x5c, 0x3c,
    0xeb, 0xc9, 0x18, 0x3e, 0xdc, 0x24, 0xaa, 0x3d, 0x26, 0x0c, 0x98, 0xbd,
    0x02, 0xe4, 0xe6, 0x3d, 0x10, 0x7c, 0x44, 0x3e, 0xd9, 0x14, 0x70, 0xbd,
    0xaa, 0xa9, 0xe1, 0x3c, 0x2d, 0xbe, 0x26, 0x3d, 0xe1, 0x67, 0x7d, 0xbd,
    0x99, 0x28, 0x60, 0x3e, 0x15, 0x3c, 0x31, 0x3d, 0x90, 0xbb, 0x9e, 0x3d,
    0xa0, 0x29, 0x41, 0x3d, 0xbe, 0x0b, 0xf6, 0x3c, 0xe3, 0xe6, 0x14, 0xbe,
    0x66, 0x46, 0xd1, 0x3d, 0xe4, 0x23, 0x18, 0x3e, 0x19, 0x05, 0x3a, 0xbe,
    0x04, 0x59, 0x5f, 0xbd, 0x87, 0xb2, 0x3b, 0x3e, 0xeb, 0x3c, 0x34, 0xbe,
    0x8c, 0x1a, 0x52, 0x3e, 0xb7, 0x41, 0x14, 0x3a, 0xb8, 0xf7, 0xa1, 0xbd,
    0x6e, 0xd4, 0x40, 0x3e, 0xe4, 0xd0, 0xbe, 0x3c, 0x4e, 0xe8, 0x07, 0xbd,
    0x15, 0xee, 0xb4, 0x3d, 0x00, 0xe6, 0x8f, 0x3d, 0x96, 0x61, 0x02, 0xbe,
    0x70, 0xd8, 0x07, 0xbc, 0x28, 0xa0, 0xed, 0x3d, 0x1e, 0x4e, 0x0d, 0xbc,
    0x8c, 0x7c, 0x39, 0x3e, 0x13, 0xbc, 0x34, 0x3e, 0x48, 0x24, 0xe8, 0xbc,
    0x5b, 0x22, 0x2b, 0x3e, 0x85, 0x48, 0xa8, 0x3d, 0xa0, 0xa6, 0xa6, 0xbd,
    0x25, 0x6a, 0x6c, 0x3e, 0x22, 0x8a, 0x32, 0x3e, 0x6e, 0xde, 0xa4, 0xbd,
    0x53, 0xb8, 0x20, 0x3e, 0xdb, 0x15, 0xef, 0x3d, 0xca, 0x8a, 0xce, 0xbd,
    0x7f, 0x21, 0xa5, 0x3d, 0x4c, 0x48, 0x5d, 0xbc, 0xb1, 0xf8, 0x5e, 0xbe,
    0x14, 0x6b, 0x5a, 0x3e, 0x82, 0x96, 0x08, 0xbe, 0x79, 0x39, 0xfc, 0xbd,
    0x40, 0x40, 0x8f, 0x3e, 0x30, 0xb5, 0x4a, 0xbe, 0x3a, 0x97, 0xa3, 0xbd,
    0x1c, 0x33, 0x32, 0x3e, 0x58, 0x13, 0xef, 0xbd, 0xbd, 0x3d, 0x8e, 0xbd,
    0xfa, 0x17, 0x8d, 0x3d, 0x44, 0xcf, 0xfd, 0xbb, 0xdc, 0x74, 0x54, 0xbe,
    0xae, 0x20, 0x69, 0x3e, 0x4e, 0xe9, 0xc7, 0xbd, 0x83, 0x85, 0x9f, 0xbd,
    0x59, 0x85, 0x79, 0x3e, 0x8c, 0x91, 0xa7, 0xbd, 0x36, 0x0c, 0x60, 0xbe,
    0x27, 0x1d, 0x39, 0x3e, 0x29, 0x41, 0x27, 0xbe, 0x5f, 0x1f, 0x54, 0xbe,
    0x7f, 0x51, 0xcf, 0x3d, 0x13, 0x89, 0xa7, 0xbd, 0x9a, 0x2b, 0x6c, 0xbe,
    0x97, 0xc1, 0x83, 0x3d, 0xf2, 0x81, 0x5d, 0xbd, 0x6e, 0xd3, 0x47, 0xbe,
    0xe8, 0x01, 0xf3, 0x3d, 0x7e, 0xc3, 0x23, 0xbe, 0x61, 0x81, 0xbf, 0xbd,
    0xe5, 0xe9, 0x0b, 0x3e, 0x82, 0x53, 0xea, 0xbd, 0xa9, 0x2d, 0x82, 0xbe,
    0x33, 0x9e, 0x2e, 0x3e, 0x4d, 0x4c, 0x67, 0xbd, 0x43, 0x01, 0x85, 0xbe,
    0x24, 0x8f, 0x44, 0x3e, 0x9c, 0x93, 0x98, 0xbc, 0x74, 0x71, 0x0d, 0xbe,
    0xc7, 0x3e, 0x80, 0x3e, 0xc0, 0x4f, 0x7b, 0xbe, 0xad, 0x60, 0xed, 0xbd,
    0xcf, 0xdd, 0x7e, 0x3e, 0x52, 0xf8, 0x58, 0xbe, 0x04, 0x73, 0x6b, 0xbd,
    0xb3, 0x18, 0x7d, 0x3e, 0x5e, 0xb6, 0x0b, 0xbe, 0x65, 0x82, 0x91, 0xba,
    0x7c, 0xce, 0x23, 0x3e, 0xd7, 0xed, 0x5e, 0xbd, 0xbb, 0x5f, 0x48, 0x3e,
    0x9b, 0x22, 0xcf, 0x3d, 0xb7, 0x84, 0x3c, 0xbe, 0x2b, 0x12, 0x47, 0x3e,
    0x38, 0xb5, 0xfc, 0x3d, 0x25, 0xed, 0xce, 0xbd, 0x92, 0x34, 0x34, 0x3d,
    0xe7, 0x3a, 0x20, 0x3e, 0x5e, 0x24, 0x18, 0xbd, 0xa4, 0x6e, 0x81, 0x3e,
    0x59, 0xcd, 0x9f, 0x3e, 0xf2, 0xff, 0x08, 0xbe, 0x06, 0xc6, 0x60, 0x3e,
    0x1e, 0x71, 0x3b, 0x3e, 0x05, 0xb3, 0xd2, 0xbd, 0x03, 0xf6, 0x47, 0x3e,
    0x62, 0xd9, 0x89, 0x3e, 0x55, 0xea, 0x8c, 0xbd, 0x1d, 0x6a, 0x43, 0x3e,
    0x93, 0x79, 0x1e, 0x3e, 0x24, 0xb2, 0x77, 0xbe, 0x19, 0x04, 0x41, 0x3e,
    0xee, 0x5a, 0x2a, 0x3e, 0xf8, 0xd7, 0x1c, 0xbe, 0xed, 0xa8, 0x61, 0x3e,
    0x32, 0x79, 0x37, 0x3e, 0xbd, 0x84, 0x6d, 0xbc, 0x05, 0x79, 0x07, 0x3e,
    0x1b, 0x5e, 0x0e, 0x3e, 0xbb, 0xe6, 0x85, 0xbc, 0x63, 0xf4, 0x5a, 0x3e,
    0xc8, 0x21, 0x03, 0x3e, 0x92, 0x1d, 0x2b, 0xbd, 0x63, 0x66, 0x8d, 0x3e,
    0xd7, 0x8c, 0x69, 0xbb, 0x32, 0x4d, 0x59, 0xbd, 0xd8, 0x53, 0xcd, 0x3d,
    0xf9, 0x52, 0x7b, 0x3c, 0x36, 0x84, 0x5b, 0xbc, 0xad, 0x92, 0x66, 0x3e,
    0xeb, 0xef, 0xe9, 0x3d, 0xf8, 0x5e, 0xac, 0x3d, 0x26, 0x07, 0x40, 0x3e,
    0xaa, 0x58, 0xbc, 0xbd, 0xbf, 0xbc, 0xf5, 0x3c, 0xbb, 0x56, 0xd5, 0x3d,
    0xc9, 0x12, 0x2f, 0x3d, 0xef, 0x64, 0x72, 0x3d, 0xfa, 0x04, 0x96, 0x3d,
    0xee, 0x0d, 0x86, 0x3c, 0xf6, 0x88, 0x83, 0x3d, 0xdd, 0xdf, 0x12, 0x3e,
    0x30, 0x34, 0xc9, 0xbc, 0xe9, 0x82, 0xe3, 0x3d, 0xcc, 0xc1, 0xee, 0x3d,
    0x59, 0x88, 0x5f, 0x3d, 0xac, 0x4a, 0x32, 0x3e, 0xd1, 0x38, 0x79, 0x3c,
    0xe6, 0xd6, 0x58, 0x3d, 0xaf, 0x76, 0x0a, 0x3e, 0xdd, 0x22, 0xf3, 0xbd,
    0x34, 0x14, 0x76, 0x3c, 0xb0, 0x94, 0xc7, 0x3c, 0x05, 0x80, 0x6c, 0xbe,
    0x78, 0x6f, 0xc3, 0x3d, 0x4d, 0xce, 0x67, 0x3e, 0xfb, 0x82, 0x0e, 0xbe,
    0xe9, 0x7c, 0xb7, 0x3d, 0x41, 0x64, 0x08, 0x3e, 0x39, 0x13, 0x4b, 0xbe,
    0xef, 0xc2, 0x05, 0x3d, 0x2d, 0x80, 0x47, 0x3e, 0x29, 0x1e, 0x8c, 0xbd,
    0xde, 0xad, 0x04, 0x3d, 0x8a, 0xe9, 0x7d, 0x3e, 0xe3, 0xf9, 0x03, 0xbc,
    0x72, 0x68, 0xfb, 0x3d, 0xfd, 0xd3, 0x27, 0x3e, 0x5b, 0x70, 0x4a, 0xbe,
    0xa9, 0x03, 0x74, 0x3e, 0x1b, 0xbf, 0x83, 0x3e, 0xbd, 0x05, 0x68, 0xbe,
    0x91, 0x4d, 0xfc, 0x3d, 0xa3, 0xec, 0x61, 0x3e, 0xb7, 0xfb, 0x4b, 0xbe,
    0xf3, 0xe5, 0xb5, 0x3d, 0x17, 0x52, 0xe9, 0x3d, 0xa0, 0x01, 0x8a, 0xbd,
    0xe9, 0xbd, 0x1b, 0x3e, 0x1f, 0xff, 0x4c, 0x3e, 0x8d, 0x0b, 0x05, 0xbe,
    0xd8, 0xe0, 0xbd, 0xb9, 0x8c, 0x15, 0x2e, 0x3e, 0x88, 0xab, 0x28, 0xbc,
    0xba, 0x0e, 0x9e, 0x3e, 0xb6, 0xae, 0x4f, 0x3e, 0xd0, 0x0a, 0x20, 0xbe,
    0x3e, 0xa6, 0x85, 0x3e, 0xd0, 0x1d, 0x71, 0x3e, 0xef, 0x14, 0x2a, 0xbe,
    0x0e, 0xbd, 0x20, 0x3e, 0x36, 0xfd, 0xf9, 0x3d, 0xe2, 0xb5, 0x55, 0xbe,
    0x41, 0x9c, 0x83, 0x3c, 0x58, 0x16, 0x20, 0x3e, 0x3d, 0xc5, 0x49, 0xbe,
    0x80, 0xae, 0x22, 0x3e, 0x7a, 0x3c, 0xa1, 0x3e, 0xa9, 0x73, 0xe8, 0xbd,
    0xbe, 0xed, 0x0d, 0x3e, 0xb2, 0xc9, 0x6b, 0x3e, 0x91, 0x0a, 0xfe, 0xbd,
    0x47, 0xbc, 0x77, 0x3e, 0x18, 0x9b, 0x7a, 0x3d, 0x1d, 0xae, 0xa2, 0xbd,
    0xec, 0xad, 0x26, 0x3e, 0xa2, 0xe2, 0x2a, 0x3e, 0xcf, 0xcb, 0xa4, 0xbe,
    0x13, 0xd6, 0x92, 0x3e, 0xfd, 0xbe, 0x55, 0x3e, 0x14, 0x22, 0xb2, 0xbd,
    0x52, 0x03, 0x7c, 0x3e, 0xba, 0xd6, 0x2e, 0x3e, 0x41, 0x1e, 0xda, 0xbd,
    0xc7, 0xe8, 0x20, 0x3e, 0x3d, 0x29, 0x47, 0x3e, 0xba, 0x3a, 0x6d, 0xbe,
    0xd8, 0xf6, 0x56, 0x3e, 0x60, 0xdc, 0x28, 0x3e, 0xff, 0x04, 0x42, 0xbe,
    0xe4, 0x64, 0x18, 0x3e, 0x95, 0x29, 0x84, 0x3d, 0x17, 0x29, 0x11, 0xbe,
    0xdb, 0xeb, 0x79, 0x3e, 0x92, 0xa8, 0xc6, 0x3d, 0xcf, 0x1f, 0x1a, 0xbe,
    0xbc, 0xe5, 0x7a, 0x3e, 0x35, 0xd2, 0x85, 0x3e, 0xe1, 0x21, 0x56, 0xbe,
    0xf2, 0xe5, 0x84, 0x3e, 0x62, 0xbf, 0x02, 0x3e, 0x87, 0x1e, 0xf2, 0xbd,
    0x72, 0x5e, 0xab, 0x3e, 0xe7, 0x61, 0xd4, 0x3d, 0x6e, 0xc8, 0x57, 0xbe,
    0xa6, 0x42, 0x2c, 0x3e, 0x01, 0x58, 0x99, 0x3d, 0x37, 0xe9, 0x47, 0xbe,
    0x4e, 0xb1, 0x4c, 0x3e, 0x39, 0x6e, 0xa7, 0x3d, 0x2e, 0xb0, 0x16, 0xbe,
    0xa2, 0x3c, 0xb1, 0x3e, 0x8e, 0x89, 0xfb, 0x3d, 0x57, 0xe9, 0x51, 0xbe,
    0x46, 0xa8, 0x6a, 0x3e, 0xc8, 0x75, 0x16, 0x3e, 0x03, 0x51, 0x98, 0xbd,
    0xa8, 0x8d, 0x80, 0x3e, 0x9f, 0x31, 0xe7, 0x3d, 0xeb, 0xf4, 0xc5, 0xbd,
    0x2c, 0x59, 0x6d, 0x3d, 0xee, 0x33, 0x20, 0x3e, 0x47, 0x5b, 0x6c, 0xbc,
    0xfe, 0x02, 0x9f, 0x3d, 0xe2, 0x9c, 0x99, 0xbd, 0x84, 0x03, 0x3b, 0x3c,
    0x93, 0xf5, 0x09, 0xbe, 0x64, 0xba, 0x49, 0xbd, 0xb0, 0x3a, 0xa3, 0xbd,
    0xae, 0xb3, 0xeb, 0xba, 0x71, 0x56, 0xf4, 0x3c, 0xed, 0x2c, 0x0a, 0x3e,
    0xf1, 0x44, 0x56, 0xbd, 0xf7, 0xa8, 0x21, 0x3d, 0x0f, 0xe5, 0x63, 0x3c,
    0x13, 0x74, 0xe0, 0x3b, 0x89, 0x5d, 0x6b, 0xbd, 0xea, 0x72, 0x2f, 0xbc,
    0x29, 0x2d, 0xb4, 0xbc, 0xc8, 0x71, 0xe0, 0xbc, 0x8d, 0xa6, 0x71, 0x3d,
    0x8f, 0x11, 0x75, 0xbd, 0x43, 0x44, 0xdf, 0xbd, 0x81, 0x3b, 0x14, 0xbd,
    0x0f, 0xc9, 0xa3, 0x3d, 0xe9, 0xba, 0xa1, 0x3d, 0x39, 0xde, 0x25, 0x3e,
    0x01, 0x66, 0x8c, 0xbd, 0x1e, 0xc1, 0x96, 0xbd, 0xc6, 0x9d, 0xf7, 0xbd,
    0xb3, 0x2c, 0x51, 0xbd, 0xe5, 0x7e, 0x89, 0xbd, 0x71, 0xe7, 0x0b, 0xbe,
    0x6e, 0xdf, 0x0f, 0x3d, 0x89, 0x53, 0x6f, 0xbd, 0x2d, 0xa1, 0x3f, 0xbb,
    0x5b, 0x1c, 0xb6, 0xbc, 0xd0, 0x4b, 0xb0, 0x33, 0x23, 0x92, 0xa9, 0xbd,
    0x44, 0x40, 0xbf, 0xbd, 0x5c, 0x43, 0xfc, 0xbc, 0xaf, 0x3f, 0xc3, 0xbd,
    0x7b, 0x6b, 0x56, 0xbc, 0x0d, 0xb3, 0xca, 0x3d, 0x8b, 0x07, 0x9b, 0x3d,
    0x8d, 0xa5, 0x8d, 0x3d, 0xb3, 0x11, 0xe7, 0xbd, 0x0e, 0x89, 0x00, 0x3e,
    0x4f, 0x24, 0x39, 0xbb, 0xe0, 0x40, 0x2c, 0xbd, 0x31, 0x84, 0x78, 0xbd,
    0xc0, 0x83, 0x8d, 0xbd, 0xbb, 0x33, 0x1a, 0x3d, 0x77, 0x0b, 0xbd, 0xbc,
    0x23, 0x5b, 0x9d, 0xbd, 0xfe, 0x5a, 0x85, 0xbc, 0x04, 0x89, 0x64, 0x3d,
    0x43, 0x19, 0xb8, 0x3d, 0xfe, 0x4f, 0x07, 0x3c, 0x41, 0xf2, 0x52, 0xbd,
    0x98, 0x94, 0x91, 0x3d, 0x83, 0x85, 0x81, 0x3d, 0x6f, 0x78, 0xae, 0xbb,
    0x84, 0xca, 0x16, 0xbe, 0x4a, 0xc9, 0x2b, 0xbd, 0xbe, 0x02, 0x9b, 0xbd,
    0x81, 0x9b, 0x54, 0xbd, 0x8a, 0x48, 0x82, 0xbd, 0x2a, 0xa9, 0x69, 0x3d,
    0xba, 0xcd, 0xf3, 0xbc, 0x1b, 0x01, 0x4f, 0x3d, 0x60, 0xc5, 0xd7, 0x3d,
    0x50, 0x6e, 0xc5, 0x3c, 0x90, 0x72, 0xbd, 0x3c, 0x3a, 0x90, 0xc7, 0x3c,
    0xba, 0xf8, 0xb1, 0x3b, 0x11, 0xf5, 0x84, 0x3d, 0x9b, 0x80, 0x00, 0x3d,
    0x4f, 0x61, 0x01, 0xbd, 0x0e, 0x75, 0x70, 0x3d, 0x43, 0x50, 0x9f, 0x3c,
    0xa3, 0xce, 0x82, 0xbd, 0x14, 0xc5, 0xfc, 0xbc, 0x1c, 0x22, 0xd3, 0x3d,
    0x50, 0x8c, 0xad, 0x3d, 0x5d, 0xb9, 0x9e, 0xbd, 0xc9, 0x70, 0x33, 0x3d,
    0x49, 0x76, 0x7c, 0x3d, 0x0f, 0x19, 0xd6, 0x3c, 0x52, 0xc6, 0x79, 0xbd,
    0x3a, 0xbe, 0xa7, 0x3d, 0xc2, 0x01, 0x39, 0xbd, 0xa6, 0xc4, 0x00, 0x3d,
    0xe2, 0x46, 0x8f, 0x3c, 0xca, 0x5b, 0x3d, 0x3d, 0xee, 0x69, 0x1c, 0xbe,
    0x32, 0x71, 0x2d, 0x3d, 0x2f, 0xae, 0x9c, 0xbd, 0x1c, 0x79, 0x68, 0xbd,
    0x7f, 0x3c, 0xcc, 0xbd, 0xee, 0x7e, 0x97, 0x3d, 0x52, 0xf1, 0x7d, 0xbd,
    0xed, 0x2d, 0xdb, 0xbb, 0xf0, 0x3d, 0x4c, 0xbd, 0x2a, 0xfe, 0x4f, 0x3d,
    0x6c, 0x02, 0x9b, 0xbd, 0xc3, 0x16, 0x80, 0x3d, 0xb7, 0xca, 0x76, 0xbd,
    0xea, 0x72, 0x03, 0xbe, 0x27, 0xab, 0xf9, 0x3c, 0xa4, 0x07, 0xb2, 0xbd,
    0xa8, 0x52, 0xbf, 0xbd, 0x1f, 0xed, 0x91, 0x3d, 0x26, 0xd3, 0xd4, 0x3c,
    0x6c, 0xdf, 0x84, 0x3d, 0x6e, 0xcf, 0xd7, 0x3c, 0x94, 0x3f, 0x19, 0x3d,
    0x18, 0x36, 0xfd, 0x3c, 0xdb, 0xdc, 0x33, 0x3d, 0x8e, 0xc7, 0x8d, 0xbd,
    0x55, 0x6e, 0xb2, 0x3c, 0xed, 0xdf, 0x6d, 0xbb, 0x13, 0xde, 0xab, 0xbc,
    0x14, 0x8a, 0xa9, 0xbd, 0x2d, 0xea, 0x39, 0xbb, 0x32, 0x6f, 0x0b, 0xbe,
    0x44, 0xdd, 0x19, 0xbc, 0xfb, 0x36, 0x0f, 0xbd, 0xc5, 0xe4, 0x95, 0x3d,
    0x23, 0x8a, 0xb2, 0xbc, 0x62, 0x8e, 0xb6, 0x3c, 0xb4, 0xd6, 0x86, 0x3d,
    0x2b, 0x58, 0x0e, 0x3d, 0xf6, 0x14, 0x8c, 0x3c, 0xcb, 0xc1, 0x10, 0xbd,
    0x75, 0x5b, 0x06, 0x3e, 0x4f, 0x90, 0x8a, 0xbd, 0xc8, 0xcd, 0xbb, 0x3d,
    0x57, 0xd4, 0x03, 0xbe, 0xd2, 0x8d, 0xb1, 0xbc, 0xdc, 0xd2, 0xf8, 0x3c,
    0x15, 0xff, 0x25, 0xbe, 0xb7, 0x59, 0x08, 0xbd, 0x03, 0x8c, 0x9c, 0xbd,
    0xda, 0x3f, 0x17, 0x39, 0xe5, 0x60, 0x0a, 0x3c, 0x0f, 0x0a, 0x99, 0x3d,
    0xfe, 0xac, 0x6e, 0x3d, 0x11, 0xe6, 0xc1, 0xbc, 0x76, 0xa3, 0x32, 0xbd,
    0x9a, 0x3a, 0x64, 0x3c, 0x3a, 0x56, 0x22, 0x3d, 0x1a, 0x4c, 0xc8, 0x3d,
    0xab, 0x78, 0xa8, 0xbd, 0x73, 0x09, 0xfd, 0xbc, 0xcd, 0xdd, 0x19, 0x3e,
    0x89, 0x6e, 0xf2, 0x3c, 0xac, 0xb3, 0x0a, 0x3d, 0x83, 0x10, 0xa5, 0x3c,
    0xa1, 0xf1, 0x57, 0x3c, 0x60, 0x51, 0x3b, 0xbd, 0x2e, 0xa6, 0x35, 0x3d,
    0x1f, 0xa5, 0x8c, 0xbd, 0x12, 0x73, 0xf8, 0x3d, 0xaa, 0x73, 0x49, 0x3d,
    0xae, 0xb5, 0xb7, 0xbc, 0xb7, 0x26, 0x8f, 0x3c, 0x60, 0x72, 0xd1, 0xbd,
    0xa5, 0x0c, 0xa5, 0x3c, 0x54, 0xf9, 0x41, 0xbc, 0x50, 0x2e, 0xd8, 0x3d,
    0xcd, 0xed, 0x4f, 0x3d, 0x90, 0x52, 0xc9, 0x3d, 0x25, 0xf3, 0x47, 0x3d,
    0xdf, 0xfc, 0x8a, 0xbd, 0x34, 0x46, 0x66, 0x3d, 0x06, 0x06, 0x21, 0x3e,
    0x5b, 0xfe, 0x09, 0xbe, 0x47, 0xf2, 0xb5, 0xbd, 0x29, 0x6e, 0x96, 0xbd,
    0xb0, 0xbf, 0xdf, 0xbd, 0x1f, 0xf6, 0xfd, 0xbc, 0xbc, 0xa3, 0x21, 0x3d,
    0xfe, 0xd9, 0x73, 0x3c, 0xb9, 0x1a, 0x7e, 0xbd, 0x89, 0xa2, 0x76, 0x3d,
    0xb2, 0x3b, 0x09, 0x3d, 0x35, 0x30, 0x8c, 0xbc, 0x3c, 0x80, 0x8d, 0xbd,
    0xdc, 0xbf, 0xf0, 0xbd, 0xc0, 0x40, 0x6f, 0x3b, 0x06, 0x4b, 0x38, 0xbd,
    0x3c, 0x5f, 0x0f, 0x3d, 0xa1, 0x65, 0xaa, 0x3d, 0x30, 0x90, 0xcf, 0xbd,
    0x85, 0x42, 0x3c, 0xbd, 0xf3, 0x50, 0x66, 0x3c, 0x9c, 0xc2, 0xde, 0x3d,
    0x6f, 0x1c, 0x80, 0xbc, 0x0a, 0xe2, 0x63, 0xb9, 0x62, 0x81, 0xc8, 0xbd,
    0x2b, 0x55, 0xa4, 0xbb, 0xce, 0x22, 0xe6, 0x3d, 0xb4, 0x06, 0xb7, 0x3d,
    0xa1, 0x19, 0xff, 0x3d, 0xbe, 0xf6, 0x9e, 0xbd, 0x0b, 0xa1, 0x06, 0xbe,
    0x85, 0xf7, 0xfe, 0x3c, 0x8b, 0xc5, 0x89, 0x3d, 0x44, 0x69, 0x0c, 0xbe,
    0xca, 0xc1, 0x56, 0xbd, 0x93, 0x22, 0xf4, 0xbd, 0xfb, 0x64, 0xe2, 0x3d,
    0x83, 0x5f, 0x24, 0xbc, 0x2a, 0x7f, 0x41, 0xbc, 0x95, 0x72, 0x6f, 0xbd,
    0x86, 0x52, 0x5d, 0x3d, 0xcf, 0x27, 0x49, 0xbd, 0x0d, 0xaf, 0x38, 0x3d,
    0x9b, 0xe9, 0x76, 0x3d, 0xa9, 0xce, 0x29, 0xbc, 0xd1, 0xbf, 0x94, 0xbd,
    0xb9, 0xe7, 0x8a, 0x3d, 0x87, 0xc3, 0xb1, 0xbd, 0x44, 0xcc, 0xd8, 0xbd,
    0xeb, 0xde, 0xf6, 0x3d, 0x16, 0x3c, 0x9c, 0xbd, 0xd1, 0xf8, 0x35, 0xba,
    0xc5, 0x1a, 0xbe, 0xbd, 0x92, 0x5a, 0x26, 0xbe, 0x10, 0x02, 0x25, 0x3e,
    0x0d, 0xc3, 0x22, 0xbc, 0xaf, 0x57, 0xcb, 0x3d, 0x3a, 0xb1, 0x89, 0xbd,
    0x7e, 0x68, 0xc2, 0xbd, 0x59, 0xac, 0x1d, 0x3d, 0x73, 0x8d, 0x65, 0x3d,
    0x96, 0x94, 0xbf, 0x3c, 0x5c, 0xb1, 0x66, 0x3d, 0xed, 0x97, 0x97, 0x3d,
    0x7f, 0x4f, 0x1a, 0xbe, 0x67, 0xf3, 0x92, 0xbd, 0x1e, 0x12, 0x31, 0x3d,
    0xdb, 0xa2, 0x33, 0xbd, 0x5e, 0x5d, 0x98, 0xbd, 0x66, 0x1d, 0xd9, 0xbd,
    0xe7, 0x94, 0xc9, 0x3d, 0x87, 0xce, 0x93, 0x3c, 0xca, 0x4c, 0x8c, 0xbc,
    0xc9, 0x94, 0x15, 0x3e, 0xd0, 0x8f, 0x9b, 0xbd, 0xa5, 0x3b, 0x83, 0xbc,
    0x21, 0x39, 0x9d, 0xbb, 0xbf, 0x94, 0xa6, 0xbc, 0xed, 0x90, 0x65, 0xbc,
    0x79, 0x28, 0xa4, 0x3d, 0x51, 0x7e, 0x40, 0xbd, 0x1f, 0xa4, 0x13, 0xbc,
    0x04, 0xb0, 0x72, 0x3d, 0x96, 0x76, 0xbe, 0xbc, 0x42, 0x52, 0x98, 0x3d,
    0x69, 0x64, 0xfd, 0xbd, 0xe0, 0x73, 0x81, 0xbd, 0x43, 0x38, 0xd8, 0xbd,
    0x94, 0xa3, 0xcd, 0x3c, 0xe1, 0x47, 0x9b, 0x3d, 0x55, 0x80, 0xea, 0xbc,
    0x4b, 0x73, 0x16, 0xbd, 0xdd, 0x1b, 0x8e, 0x3d, 0xbc, 0x0a, 0x9b, 0x3d,
    0x94, 0xf2, 0x80, 0xbc, 0x4f, 0x02, 0xb7, 0x3c, 0x3e, 0x66, 0x90, 0xba,
    0x9d, 0xe8, 0x94, 0xbd, 0xba, 0x6a, 0x90, 0xbc, 0x08, 0xea, 0x00, 0xbe,
    0xbf, 0x82, 0xff, 0xbd, 0xde, 0x74, 0xfc, 0x3c, 0xde, 0xb8, 0x6f, 0x3d,
    0x5d, 0xb3, 0x8b, 0x3d, 0x66, 0xaf, 0x90, 0x3c, 0x62, 0x1a, 0x07, 0x3e,
    0x21, 0x83, 0xb2, 0x39, 0x59, 0x60, 0xbc, 0xbd, 0xc1, 0xaa, 0x82, 0xbd,
    0x7f, 0xd1, 0xae, 0xbd, 0xf3, 0x9f, 0xa9, 0xbc, 0xe2, 0x7b, 0x94, 0xbc,
    0xea, 0x05, 0x96, 0x3b, 0x12, 0x1b, 0xb8, 0xbc, 0xed, 0x78, 0x0e, 0xbe,
    0xa0, 0xb7, 0x6f, 0xbd, 0x15, 0xfa, 0x9d, 0x3d, 0x1a, 0x78, 0xd2, 0x3d,
    0xa0, 0x1d, 0x89, 0x3c, 0x7d, 0xf0, 0x73, 0xbc, 0x3f, 0xb7, 0xcb, 0xbc,
    0x5f, 0x26, 0x84, 0x3d, 0x49, 0x08, 0x8f, 0x3d, 0xf2, 0x0d, 0x52, 0x3e,
    0xa9, 0xbe, 0x74, 0xbd, 0x8a, 0xa2, 0x21, 0x3e, 0x6e, 0xce, 0x2d, 0x3e,
    0xd7, 0x53, 0xdb, 0x3c, 0x6c, 0xe4, 0x1f, 0x3e, 0xd7, 0x20, 0x9b, 0x3d,
    0xbf, 0x1b, 0x67, 0xbe, 0xf5, 0x41, 0x6a, 0x3e, 0x22, 0x79, 0xcc, 0x3d,
    0x99, 0x5d, 0xbb, 0xbd, 0x75, 0x83, 0xd3, 0x3d, 0x8a, 0xca, 0xb3, 0x3d,
    0x17, 0x12, 0x28, 0xbe, 0xa9, 0x30, 0x35, 0x3e, 0xde, 0x80, 0x3e, 0x3e,
    0x37, 0xdc, 0x94, 0xbb, 0x82, 0x6d, 0x55, 0x3e, 0xff, 0xcd, 0x0c, 0x3e,
    0xc1, 0x22, 0x43, 0xbe, 0x1c, 0xed, 0xa3, 0x3d, 0x9d, 0x16, 0xa3, 0x3d,
    0xf3, 0x18, 0x00, 0xbe, 0xaa, 0x6c, 0x1a, 0x3e, 0xa4, 0x81, 0x36, 0x3e,
    0x2e, 0x17, 0x50, 0xbd, 0x53, 0xe5, 0xf8, 0x3d, 0x92, 0x36, 0x15, 0x3e,
    0x6f, 0x73, 0xa6, 0xbd, 0xb6, 0xee, 0x99, 0x3d, 0x22, 0x95, 0xc2, 0x3d,
    0x03, 0x28, 0x19, 0xbd, 0xd2, 0x4f, 0x40, 0x3e, 0xef, 0xa3, 0x51, 0xbd,
    0xf8, 0x11, 0x2e, 0xbe, 0xd0, 0x03, 0xce, 0x3d, 0xde, 0x0e, 0xa1, 0x3b,
    0x3d, 0xf4, 0xfc, 0xbd, 0x1f, 0x39, 0xe2, 0x3d, 0x8d, 0x16, 0x6e, 0xbd,
    0x0a, 0xa5, 0x8f, 0xbb, 0x46, 0x13, 0x5b, 0x3e, 0x1f, 0x3a, 0x90, 0xbd,
    0xbb, 0xec, 0x79, 0xbd, 0x7a, 0x91, 0x97, 0x3c, 0x55, 0x94, 0xce, 0xbd,
    0x11, 0x61, 0x20, 0xbd, 0xa8, 0xea, 0x0e, 0x3e, 0x53, 0xd5, 0xb1, 0xbc,
    0xb6, 0xca, 0x91, 0xbc, 0x2c, 0x8d, 0x84, 0xbc, 0x90, 0x2c, 0xf3, 0xbd,
    0x6b, 0x68, 0xbb, 0xbc, 0x9f, 0xf7, 0x1d, 0x3e, 0x64, 0xd1, 0x12, 0xbe,
    0x86, 0x87, 0x0c, 0x3e, 0x7c, 0x22, 0x2b, 0x3e, 0x49, 0xe6, 0x0a, 0xbd,
    0x91, 0xb9, 0x4b, 0x3b, 0xb5, 0x86, 0x7e, 0x3e, 0x3c, 0x5f, 0xc5, 0xbc,
    0xab, 0x0d, 0xe3, 0x3c, 0x32, 0x5d, 0xfb, 0x3d, 0x56, 0xfc, 0x47, 0xbd,
    0x56, 0xa1, 0x20, 0x3e, 0xa2, 0xa0, 0x55, 0x3d, 0xbd, 0x1d, 0x38, 0xbe,
    0x47, 0x4b, 0x94, 0x3d, 0xa4, 0x12, 0xcb, 0x3d, 0x87, 0x94, 0xed, 0xbd,
    0x87, 0xef, 0x28, 0x3c, 0x41, 0xf9, 0x6c, 0x3e, 0x55, 0xf5, 0xbe, 0xbb,
    0x29, 0x50, 0x21, 0x3e, 0x9d, 0xfc, 0xda, 0x3d, 0x8e, 0x4f, 0x5a, 0xbc,
    0xcb, 0xb9, 0x60, 0x3d, 0x7d, 0xb4, 0x31, 0x3e, 0x84, 0xc1, 0x08, 0xbc,
    0x77, 0x69, 0x50, 0x3d, 0xbf, 0xa1, 0x3f, 0xbc, 0xf7, 0x54, 0xce, 0xbd,
    0xa0, 0xff, 0x3c, 0x3d, 0xb2, 0x66, 0xc5, 0x3d, 0xe0, 0xe1, 0xa0, 0x3d,
    0x3e, 0xd5, 0xb0, 0x3d, 0xb3, 0x4c, 0x32, 0x3e, 0xc1, 0x53, 0xac, 0xbc,
    0xd0, 0xe1, 0xd9, 0x3c, 0x50, 0xf5, 0x06, 0x3e, 0xf4, 0x7b, 0xba, 0xbd,
    0xa3, 0x47, 0x69, 0xbd, 0x0c, 0xda, 0x97, 0x3c, 0xcb, 0x8d, 0x09, 0xbe,
    0xba, 0xa4, 0x95, 0x3c, 0x92, 0x59, 0x86, 0x3d, 0xbb, 0x23, 0x65, 0xbd,
    0x27, 0xed, 0x54, 0xbd, 0xdb, 0x8f, 0x1b, 0xbd, 0xe3, 0xce, 0x83, 0xbd,
    0x1e, 0xea, 0x8e, 0x3d, 0x10, 0x33, 0xde, 0xbd, 0xb9, 0xd0, 0x1e, 0xbd,
    0x43, 0x6b, 0x23, 0x3d, 0x9f, 0x58, 0x60, 0x3d, 0xbf, 0x7e, 0x54, 0x3d,
    0xd2, 0x67, 0xa4, 0x3d, 0xce, 0x38, 0x01, 0xbd, 0xf3, 0xc0, 0xef, 0x3d,
    0xa4, 0xe0, 0x53, 0xbd, 0x63, 0x31, 0xff, 0x3b, 0x59, 0xd8, 0x6d, 0x3c,
    0xcb, 0x5d, 0x7f, 0x3d, 0x66, 0xe4, 0x9a, 0x3c, 0x2d, 0x00, 0x3b, 0x3d,
    0xc1, 0x91, 0x74, 0xbd, 0x88, 0x06, 0xf3, 0x3c, 0x05, 0x0a, 0x0e, 0x3e,
    0x7d, 0x39, 0xef, 0xbd, 0x02, 0xff, 0xa4, 0xbd, 0x63, 0xf9, 0xa9, 0x3d,
    0xa7, 0x56, 0x1f, 0xbe, 0x8f, 0x28, 0x15, 0xbd, 0x7d, 0x5c, 0xab, 0x3d,
    0x5b, 0xa2, 0x3a, 0xbd, 0x89, 0x40, 0xac, 0xbd, 0xa9, 0x69, 0x39, 0x3d,
    0x76, 0x9a, 0x01, 0xbd, 0x3c, 0x0c, 0x34, 0x3c, 0x70, 0x4f, 0x45, 0x3d,
    0xb8, 0x73, 0xca, 0xbd, 0x9a, 0x18, 0x29, 0xbe, 0xd3, 0x8c, 0x2f, 0x3e,
    0xc8, 0xb9, 0xa4, 0xbd, 0x2a, 0xd5, 0x30, 0xbd, 0x6f, 0x6b, 0xa5, 0x3e,
    0x56, 0x3f, 0xda, 0x3c, 0x41, 0xd8, 0xf0, 0xbb, 0xcc, 0x02, 0xac, 0x3e,
    0x14, 0x13, 0x50, 0xbe, 0x07, 0xc8, 0xb4, 0x3c, 0x5d, 0x5a, 0xa4, 0x3e,
    0x86, 0xba, 0x79, 0xbd, 0xd2, 0x4b, 0x39, 0x3c, 0xf0, 0xac, 0xf9, 0x3d,
    0xdc, 0x9a, 0x64, 0xbe, 0x76, 0x77, 0x04, 0x3d, 0x30, 0x5d, 0x87, 0x3e,
    0x17, 0x38, 0x2b, 0xbd, 0x08, 0x16, 0x8a, 0xbd, 0x8e, 0xbf, 0x92, 0x3d,
    0x97, 0xd4, 0x0f, 0x3d, 0xa5, 0x12, 0x2c, 0xbd, 0x42, 0xbd, 0x04, 0x3e,
    0xc0, 0xe0, 0x1a, 0xbe, 0xee, 0xf3, 0x1f, 0x3c, 0x4a, 0x9b, 0x9a, 0x3e,
    0x4c, 0xc8, 0x33, 0xbe, 0xb9, 0x48, 0xed, 0xbd, 0xf1, 0x8a, 0x8d, 0x3e,
    0x52, 0xbb, 0xb4, 0xbd, 0x65, 0xc9, 0xa5, 0xbd, 0x7f, 0x5d, 0x39, 0x3e,
    0x77, 0xd7, 0x0e, 0xbd, 0xa7, 0x13, 0x30, 0x3c, 0x50, 0x8f, 0x5c, 0x3e,
    0xe2, 0xdf, 0xea, 0xbd, 0x0f, 0x09, 0x90, 0x3d, 0x56, 0x8c, 0x22, 0x3e,
    0x46, 0xad, 0x21, 0xbe, 0xe9, 0x90, 0xb8, 0x3c, 0x7d, 0x8a, 0x4e, 0x3e,
    0x99, 0x2f, 0x46, 0xbe, 0xf4, 0x9b, 0x22, 0x3e, 0x56, 0xfd, 0x60, 0x3e,
    0xec, 0x6c, 0x8b, 0xbd, 0x7a, 0xbc, 0xe1, 0x3c, 0x07, 0x78, 0x6a, 0x3e,
    0x13, 0x0a, 0xca, 0xbd, 0x60, 0x92, 0xdc, 0x3c, 0x9c, 0xad, 0x1f, 0x3e,
    0xcb, 0xfc, 0x27, 0xbe, 0xe7, 0x99, 0x2f, 0x3d, 0xbc, 0x07, 0x32, 0x3e,
    0x85, 0x9c, 0x14, 0xbe, 0xbc, 0x35, 0x21, 0x3d, 0xa5, 0x9a, 0xd7, 0x3d,
    0x98, 0x32, 0x3b, 0xbe, 0x6d, 0x84, 0x3c, 0x3e, 0xd2, 0xac, 0x27, 0x3d,
    0x2d, 0xae, 0x66, 0xbd, 0x7c, 0x1b, 0xa6, 0x3c, 0xd1, 0xb5, 0x3f, 0x3e,
    0x80, 0x89, 0x37, 0xbe, 0x5f, 0x52, 0x84, 0x3d, 0xc4, 0x9c, 0xc0, 0x3d,
    0x8b, 0xf2, 0x16, 0xbe, 0x87, 0x89, 0xd5, 0x3d, 0xe7, 0xb6, 0xa8, 0x3d,
    0x72, 0x61, 0x2d, 0xbe, 0xda, 0x81, 0x15, 0x3e, 0x98, 0xdc, 0x8a, 0xbd,
    0xf6, 0x87, 0xd7, 0xbb, 0x18, 0x68, 0x29, 0x3e, 0xe7, 0xf1, 0xd7, 0xbd,
    0x2f, 0x4b, 0xf3, 0xbd, 0x79, 0xab, 0xd5, 0x3b, 0x79, 0xb4, 0x4e, 0xbd,
    0x98, 0xe7, 0x3b, 0x3a, 0xf2, 0xc9, 0x77, 0x3d, 0x6f, 0xf1, 0x14, 0xbd,
    0x92, 0x2a, 0xab, 0xbc, 0x2a, 0x8e, 0x3f, 0x3e, 0x4f, 0x1f, 0x86, 0xbd,
    0xb9, 0x84, 0x6e, 0x3d, 0xd6, 0xff, 0x25, 0x3e, 0xc1, 0x2a, 0x28, 0xbe,
    0x1a, 0xa9, 0x02, 0x3e, 0x58, 0xd3, 0x6f, 0x3d, 0xd4, 0xe1, 0x43, 0xbd,
    0xa1, 0x20, 0x92, 0x3d, 0x2b, 0x74, 0x51, 0x3d, 0x9f, 0xec, 0x81, 0xbd,
    0x62, 0x8b, 0x5b, 0x3d, 0xd4, 0x06, 0x29, 0x3e, 0xbe, 0x74, 0x13, 0xbe,
    0x22, 0x65, 0x04, 0x3e, 0xc7, 0x98, 0xb0, 0x3d, 0xd5, 0x8f, 0x6f, 0xbc,
    0x78, 0x81, 0xc0, 0x3d, 0x8e, 0xd8, 0x2f, 0x3e, 0xe2, 0xfc, 0xd9, 0xba,
    0x88, 0xd2, 0xb1, 0xbd, 0x6f, 0x53, 0xe7, 0x3d, 0x00, 0x90, 0x1c, 0xbe,
    0x51, 0xdd, 0xe7, 0x3d, 0x0e, 0xb4, 0x4c, 0x3d, 0x73, 0x7d, 0xfc, 0x3c,
    0xfd, 0xf0, 0x50, 0x3d, 0x3f, 0x5e, 0x26, 0x3e, 0xc3, 0xaf, 0x35, 0xbd,
    0x7b, 0x69, 0x34, 0x3e, 0x09, 0x47, 0xce, 0x3d, 0x2e, 0xd7, 0x8c, 0xbd,
    0xa8, 0xd3, 0x2d, 0x3e, 0x4a, 0x57, 0xb1, 0x3d, 0x81, 0xca, 0x6a, 0xbd,
    0xef, 0xac, 0x03, 0x3d, 0xfa, 0xd6, 0x7f, 0x3d, 0x38, 0xcb, 0x17, 0xbe,
    0xfb, 0x5b, 0x3c, 0x3e, 0x2f, 0x40, 0xc6, 0x3d, 0x09, 0x9f, 0x69, 0xbd,
    0x7c, 0xd5, 0x2b, 0x3e, 0xb6, 0x8e, 0xce, 0xba, 0x8e, 0xec, 0x96, 0xbd,
    0x1f, 0xc4, 0x06, 0x3e, 0x93, 0xdf, 0x01, 0x3d, 0x6f, 0xec, 0x19, 0xbe,
    0xa6, 0x01, 0xba, 0x3d, 0x63, 0xe2, 0xcd, 0x3d, 0x32, 0x03, 0x6b, 0xbe,
    0x0b, 0xdf, 0xd4, 0x3d, 0x51, 0xa0, 0xe2, 0x3d, 0xe0, 0x59, 0xb4, 0xbd,
    0x16, 0xed, 0xcb, 0x3d, 0x0c, 0x68, 0xc9, 0x3c, 0x45, 0xa4, 0x3c, 0xbe,
    0xd9, 0x63, 0xf1, 0x3d, 0x47, 0x76, 0x01, 0x3d, 0x20, 0x16, 0x1c, 0xbe,
    0x4d, 0x6f, 0x32, 0x3e, 0xdd, 0x96, 0x1d, 0xbd, 0x4b, 0x14, 0xfb, 0xbd,
    0x33, 0x06, 0xf8, 0x3d, 0x7d, 0x9f, 0x95, 0x3d, 0x60, 0x7d, 0x8c, 0xbe,
    0x07, 0xf3, 0x66, 0x3e, 0xc2, 0xd4, 0x61, 0xbd, 0x14, 0x3c, 0x09, 0xbe,
    0xa0, 0xd1, 0x41, 0x3e, 0x38, 0xd7, 0xec, 0xbd, 0x18, 0xb2, 0x19, 0xbe,
    0x32, 0xc4, 0xc5, 0x3d, 0x08, 0x7f, 0xb2, 0xbd, 0x2b, 0xe7, 0x81, 0xbe,
    0xfe, 0x94, 0xdd, 0x3c, 0xb6, 0xcd, 0xdc, 0xbc, 0x3b, 0xdb, 0x8c, 0xbd,
    0xff, 0x81, 0x2d, 0xbd, 0x8a, 0x34, 0x8c, 0x3d, 0x9f, 0xdc, 0x80, 0x3c,
    0x12, 0xc4, 0x4d, 0x3d, 0x5d, 0xe0, 0x5c, 0x3b, 0xb5, 0xc8, 0xe2, 0xbd,
    0x28, 0xf6, 0x1f, 0xbd, 0xc3, 0xb0, 0xcd, 0xbd, 0x4c, 0x63, 0x37, 0xbe,
    0x0f, 0xaa, 0xa3, 0xbc, 0x00, 0x66, 0x24, 0x3e, 0x25, 0x3c, 0x04, 0xbe,
    0xee, 0x8d, 0x08, 0xbe, 0x53, 0x80, 0x77, 0x3e, 0x90, 0x0a, 0x97, 0xbd,
    0x7c, 0x90, 0xef, 0xbc, 0x36, 0x3a, 0x05, 0x3e, 0xb6, 0x9c, 0x65, 0xbe,
    0xc9, 0xff, 0xc3, 0x3c, 0x2f, 0xf1, 0x71, 0x3e, 0x00, 0xf1, 0x33, 0xbe,
    0x67, 0xfe, 0xb5, 0x3d, 0x78, 0x47, 0xf6, 0x3d, 0x21, 0xb7, 0x10, 0xbe,
    0xf6, 0x70, 0x81, 0x3c, 0x45, 0xae, 0xc9, 0x3d, 0xb1, 0x7e, 0x14, 0xbe,
    0x1d, 0xb8, 0x30, 0xbd, 0xed, 0x34, 0x01, 0x3d, 0x1d, 0xe9, 0x45, 0xbe,
    0xd4, 0x68, 0x99, 0x3d, 0x60, 0x34, 0x55, 0x3e, 0xc0, 0x82, 0x6e, 0xbe,
    0xb0, 0x66, 0x40, 0x3e, 0x5a, 0x51, 0x39, 0x3e, 0x2f, 0xa6, 0x2b, 0xbd,
    0xdf, 0x80, 0x04, 0xbd, 0xcd, 0x55, 0x23, 0x3e, 0x09, 0x3a, 0xa0, 0xbd,
    0xa6, 0x84, 0x14, 0x3e, 0xc7, 0x62, 0x31, 0x3e, 0x25, 0x9f, 0x09, 0xbd,
    0xcf, 0x26, 0x03, 0x3e, 0x4f, 0x00, 0xf1, 0x3d, 0x4d, 0xda, 0x31, 0x3c,
    0x9d, 0x60, 0x0c, 0x3e, 0x19, 0x1f, 0x12, 0x3e, 0x35, 0x7d, 0xe8, 0x3d,
    0xf8, 0xf2, 0x09, 0x3e, 0x0d, 0xb3, 0xd5, 0x3d, 0x89, 0x98, 0x04, 0x3e,
    0x0c, 0xb1, 0x21, 0xbd, 0x21, 0xad, 0xe6, 0x3c, 0xf8, 0x99, 0x31, 0x3e,
    0xd3, 0x70, 0x3e, 0x3e, 0x22, 0x00, 0xb5, 0xbd, 0x3b, 0xe0, 0xa8, 0x3d,
    0x42, 0xfd, 0x12, 0x3e, 0x31, 0x73, 0x3b, 0x3d, 0x8f, 0x25, 0x00, 0x3e,
    0x97, 0xff, 0x66, 0x3d, 0x98, 0xcc, 0x18, 0xbe, 0x65, 0x74, 0x31, 0x3e,
    0x75, 0x17, 0xc8, 0x3c, 0xec, 0xc2, 0xa1, 0xbd, 0x29, 0x2b, 0x76, 0x3e,
    0xb2, 0xc1, 0x49, 0x3c, 0xfa, 0x11, 0x12, 0x3d, 0xa2, 0xcd, 0x4c, 0x3e,
    0x79, 0x39, 0x21, 0x3c, 0x00, 0x75, 0xe0, 0xbc, 0xbf, 0x0e, 0x40, 0x3e,
    0xc6, 0x83, 0xc8, 0xbb, 0x52, 0x00, 0x01, 0xbe, 0xf3, 0x91, 0x5c, 0x3e,
    0x03, 0x1a, 0x87, 0x3c, 0x04, 0xd7, 0x1d, 0xbc, 0xb5, 0x3d, 0x02, 0x3e,
    0x6f, 0x59, 0xab, 0xbd, 0xca, 0x9c, 0x1d, 0x3c, 0xb2, 0x01, 0xad, 0x3d,
    0x39, 0xa2, 0x85, 0x3d, 0x70, 0x2f, 0xb5, 0xbc, 0xb4, 0x1f, 0x97, 0x3e,
    0x7c, 0x0e, 0x08, 0x3e, 0x4f, 0xd4, 0x24, 0xbd, 0xdd, 0xd7, 0xd4, 0x3d,
    0x08, 0xd3, 0xbc, 0x3d, 0x7b, 0x40, 0xc9, 0x3d, 0x1a, 0x03, 0xdd, 0x3d,
    0x1e, 0xfe, 0xfb, 0xbc, 0x83, 0x3d, 0xbe, 0x3c, 0x06, 0x58, 0x30, 0x3e,
    0x73, 0xe4, 0xc4, 0xbd, 0x14, 0x2d, 0xf1, 0x3d, 0xa7, 0xbe, 0x49, 0x3e,
    0x67, 0x52, 0xd3, 0xbd, 0x48, 0x9f, 0xf3, 0x3d, 0xc8, 0xd6, 0xa5, 0x3e,
    0x7b, 0x68, 0x12, 0xbe, 0xbf, 0xd4, 0x97, 0x3e, 0xdb, 0xbd, 0x59, 0x3e,
    0x2b, 0xa3, 0x2f, 0xbe, 0xc3, 0xbb, 0x8d, 0x3e, 0xe9, 0x02, 0x9c, 0x3e,
    0x75, 0xcc, 0x83, 0xbe, 0x3d, 0x34, 0xbb, 0x3c, 0xd4, 0xec, 0x4e, 0x3e,
    0xed, 0x87, 0xe7, 0xbc, 0x88, 0x6f, 0x12, 0x3e, 0x95, 0x48, 0xa9, 0x3d,
    0x9b, 0x3a, 0xba, 0xbd, 0xf7, 0x18, 0x89, 0x3e, 0x0a, 0x05, 0xa7, 0x3e,
    0x4f, 0xf7, 0xbf, 0xbd, 0x97, 0xfe, 0xe8, 0x3d, 0xb9, 0xce, 0x04, 0x3e,
    0x25, 0xa4, 0x5f, 0xbd, 0x27, 0x81, 0x22, 0x3e, 0xe8, 0xe0, 0xa5, 0x3e,
    0x50, 0xdc, 0x76, 0xbe, 0xe1, 0x96, 0x92, 0x3d, 0xc1, 0xd0, 0xb5, 0x3e,
    0xe3, 0x18, 0x2a, 0xbe, 0x2e, 0x34, 0x1e, 0x3e, 0x0c, 0x96, 0x60, 0x3e,
    0xc1, 0xa1, 0x2a, 0xbe, 0x14, 0x6a, 0x2d, 0x3e, 0x30, 0x7e, 0x08, 0x3e,
    0xc5, 0x15, 0x31, 0xbd, 0xd7, 0x18, 0xd6, 0x3d, 0x3b, 0xee, 0x86, 0x3e,
    0x0f, 0x4f, 0x22, 0xbe, 0x46, 0xe9, 0x79, 0x3d, 0xfc, 0x9e, 0xa6, 0x3d,
    0x70, 0xd5, 0xb8, 0xbd, 0x0b, 0x12, 0x99, 0x3e, 0x8a, 0xd4, 0x83, 0x3e,
    0x29, 0xac, 0x02, 0xbe, 0x14, 0xa5, 0x92, 0x3e, 0x2c, 0xc7, 0x3a, 0x3e,
    0xc6, 0x21, 0xcb, 0xbd, 0x78, 0x9f, 0x68, 0x3e, 0x37, 0x64, 0x64, 0x3e,
    0x69, 0xc8, 0xa9, 0xbd, 0x12, 0x32, 0x29, 0x3e, 0x50, 0x45, 0x73, 0x3d,
    0x01, 0x2f, 0x49, 0xbe, 0xf1, 0xe7, 0x32, 0x3e, 0x56, 0xa9, 0x87, 0x3d,
    0xe4, 0xa9, 0xa8, 0xbd, 0xc9, 0x58, 0x33, 0x3e, 0x13, 0x10, 0x03, 0x3c,
    0x52, 0x47, 0xcb, 0xbd, 0x3a, 0x82, 0x9b, 0x3d, 0xa9, 0x80, 0x76, 0xbd,
    0xa7, 0xa3, 0xa7, 0xbd, 0x43, 0x16, 0x4c, 0x3e, 0xcf, 0x83, 0xc4, 0xbd,
    0x89, 0x2b, 0x90, 0xbd, 0x32, 0x16, 0x12, 0x3e, 0xbd, 0xc4, 0x37, 0xbe,
    0xe0, 0xe0, 0x1c, 0xbd, 0x45, 0x44, 0x3b, 0x3e, 0x1b, 0x59, 0x33, 0xbe,
    0x5e, 0xba, 0xb1, 0xbd, 0x42, 0x7e, 0xaa, 0x3d, 0x21, 0x51, 0x1f, 0xbe,
    0xaf, 0xde, 0xaf, 0x3d, 0xaf, 0x58, 0xa7, 0x3d, 0xe0, 0x41, 0x6f, 0xbc,
    0x77, 0x01, 0xc7, 0xbd, 0xed, 0xd0, 0x1e, 0x3e, 0x75, 0x0a, 0x41, 0xbe,
    0xf4, 0x77, 0x88, 0xbd, 0xde, 0xb6, 0x4f, 0x3e, 0x78, 0x53, 0x0f, 0xbe,
    0x03, 0x6f, 0xd3, 0xbc, 0x62, 0x4e, 0x69, 0x3d, 0x0a, 0x7b, 0x72, 0xbd,
    0xef, 0x15, 0xe5, 0x3d, 0x47, 0x0e, 0xdd, 0x3d, 0x72, 0xfd, 0x8d, 0xbd,
    0xec, 0xf9, 0x87, 0x3c, 0x2d, 0x2b, 0x0b, 0x3e, 0x0e, 0x79, 0x15, 0xbd,
    0xe0, 0x16, 0x48, 0x3e, 0xe2, 0xe5, 0x9c, 0x3d, 0xe2, 0xc7, 0xff, 0xbd,
    0x77, 0x37, 0x1e, 0x3e, 0xa8, 0x8b, 0x2d, 0x3c, 0x5e, 0xbf, 0x9c, 0xbc,
    0x5e, 0x36, 0x1f, 0xbd, 0x04, 0x9f, 0x22, 0x3e, 0xdc, 0xcc, 0x02, 0x3e,
    0x25, 0x12, 0x32, 0x3e, 0xb7, 0x62, 0x4e, 0x3d, 0x74, 0x01, 0xad, 0x3d,
    0x00, 0xb1, 0x4c, 0xbd, 0x5d, 0xeb, 0x97, 0xbc, 0xdb, 0x87, 0x90, 0x3d,
    0x5a, 0xdc, 0x04, 0x3e, 0xd2, 0x37, 0x06, 0xbe, 0x02, 0xf5, 0x0a, 0x3e,
    0x89, 0x1a, 0x3c, 0x3e, 0xc3, 0x77, 0xb7, 0xbd, 0xa9, 0xa6, 0xd6, 0x3d,
    0x14, 0x48, 0xc0, 0x3d, 0x65, 0xd6, 0xbe, 0xbd, 0x0f, 0xa1, 0x15, 0x3e,
    0xdd, 0x47, 0xa0, 0xbc, 0xc7, 0x00, 0x1f, 0x3c, 0x80, 0xa0, 0x14, 0x3e,
    0x3c, 0x6e, 0x05, 0x3d, 0x21, 0xf6, 0x58, 0xbc, 0xed, 0xe9, 0x2e, 0x3d,
    0x58, 0x18, 0x09, 0x3e, 0x3a, 0x43, 0x73, 0xbd, 0xce, 0xf7, 0x82, 0x3e,
    0xc9, 0xcd, 0x2b, 0x3c, 0x31, 0x3f, 0x17, 0xbd, 0xa4, 0x1a, 0x70, 0x3e,
    0x50, 0xd1, 0xd7, 0x3c, 0xce, 0xae, 0x80, 0xbc, 0xf7, 0xcc, 0x78, 0x3e,
    0x07, 0xa0, 0x08, 0x3d, 0x6e, 0x81, 0xef, 0xbd, 0x44, 0x78, 0x48, 0x3e,
    0x8f, 0x0c, 0xb3, 0xbb, 0x9f, 0xad, 0x00, 0xbe, 0x74, 0xc0, 0x0d, 0x3e,
    0x47, 0x6f, 0x69, 0x3d, 0xe4, 0x90, 0xe6, 0xbd, 0xb9, 0x37, 0xf7, 0x3d,
    0x54, 0xcb, 0x71, 0xbd, 0xaf, 0x34, 0x88, 0xbd, 0xde, 0x8a, 0x67, 0x3e,
    0x2c, 0x9a, 0xf2, 0xbd, 0xaa, 0x8b, 0x93, 0xbd, 0x4a, 0xce, 0x8c, 0x3e,
    0x34, 0x48, 0xad, 0xbd, 0xe7, 0xa3, 0x94, 0xbd, 0x5b, 0x96, 0x54, 0x3e,
    0xb9, 0x83, 0x1e, 0xbe, 0x22, 0x9a, 0xdd, 0xbc, 0xb0, 0x5a, 0x48, 0x3e,
    0xa4, 0x31, 0x51, 0xbd, 0xf2, 0x5e, 0xa1, 0xbd, 0x51, 0xb6, 0x6c, 0x3e,
    0x0a, 0x15, 0x5f, 0xbd, 0x33, 0xb9, 0x33, 0xbe, 0xcb, 0xce, 0x0e, 0x3e,
    0x23, 0x51, 0x30, 0xbe, 0xa9, 0xe5, 0x71, 0xbd, 0x1d, 0xf6, 0x59, 0x3e,
    0xe1, 0x63, 0x13, 0xbd, 0x75, 0x72, 0x05, 0xbd, 0x99, 0x6f, 0x99, 0x3e,
    0x0c, 0x54, 0x71, 0xbe, 0xe5, 0x1c, 0x86, 0xbd, 0x2e, 0x87, 0x7d, 0x3e,
    0x30, 0x79, 0x1a, 0xbb, 0xd3, 0x0d, 0x29, 0xbd, 0x33, 0x2b, 0x54, 0x3e,
    0x71, 0x84, 0x57, 0xbd, 0xb0, 0xf0, 0xe2, 0xbd, 0x14, 0xba, 0x9d, 0x3e,
    0xed, 0x2b, 0x4b, 0xbe, 0xb3, 0x35, 0xb5, 0x3d, 0xdb, 0xc5, 0x69, 0x3e,
    0xb5, 0x02, 0xd2, 0xbd, 0x4c, 0xb0, 0x9a, 0x3c, 0xee, 0x7e, 0x78, 0x3e,
    0x6a, 0x5a, 0x80, 0xbd, 0x0f, 0x9d, 0x3d, 0xbc, 0x8c, 0x1d, 0xe7, 0x3d,
    0x2c, 0x0f, 0xe8, 0xbd, 0xda, 0x4e, 0x83, 0x3d, 0xf0, 0x71, 0xe1, 0x3d,
    0x58, 0xe0, 0x96, 0xbd, 0x0d, 0x15, 0xfb, 0x3c, 0xf2, 0x27, 0x94, 0x3e,
    0x8b, 0xab, 0xe7, 0xbd, 0x92, 0x90, 0xca, 0xbd, 0x8c, 0x24, 0xd3, 0x3d,
    0xfa, 0xa3, 0xbe, 0xbd, 0x24, 0xd6, 0x70, 0x3c, 0xfa, 0xda, 0x23, 0x3e,
    0xe8, 0x55, 0x05, 0xbe, 0x47, 0x24, 0xd6, 0xbd, 0x9d, 0x2e, 0x99, 0x3e,
    0x98, 0x1f, 0x26, 0xbd, 0xe7, 0x94, 0x51, 0xba, 0xab, 0x87, 0x1d, 0x3e,
    0xbd, 0xb0, 0x58, 0xbe, 0x21, 0x1c, 0x09, 0x3e, 0x46, 0x64, 0x9e, 0x3e,
    0xe8, 0xe7, 0x93, 0xbe, 0x20, 0x8a, 0x3f, 0x3c, 0xd8, 0x45, 0xd0, 0x3d,
    0x26, 0x0d, 0x3b, 0xbd, 0x70, 0xb6, 0x34, 0xbd, 0xd5, 0xe5, 0x6d, 0x3e,
    0x1c, 0xec, 0x8a, 0xbd, 0x5b, 0x9f, 0xdb, 0x3c, 0xfe, 0xfd, 0xff, 0xff,
    0x04, 0x00, 0x00, 0x00, 0x48, 0x00, 0x00, 0x00, 0xa8, 0xa1, 0x46, 0xbf,
    0xfe, 0xb2, 0xdc, 0x3e, 0xca, 0x02, 0xa2, 0x3e, 0xa5, 0x01, 0x0b, 0xbf,
    0xf7, 0x21, 0x0f, 0xbf, 0xde, 0x43, 0x34, 0xbf, 0xbd, 0x98, 0xef, 0x3d,
    0x2c, 0x08, 0xa1, 0xbe, 0x73, 0x86, 0x51, 0xbe, 0x4e, 0x83, 0xf6, 0x3e,
    0x86, 0x4f, 0x4b, 0x3f, 0xcb, 0xd5, 0x78, 0xbe, 0xb7, 0xaf, 0xf3, 0x3e,
    0x6f, 0x51, 0xeb, 0xbe, 0x1c, 0xa1, 0x3b, 0xbf, 0x85, 0x4b, 0x87, 0xbd,
    0xd2, 0xe6, 0xef, 0x3e, 0xaa, 0x84, 0xa9, 0x3e, 0x52, 0xfe, 0xff, 0xff,
    0x04, 0x00, 0x00, 0x00, 0xd8, 0x00, 0x00, 0x00, 0x30, 0x1e, 0x4e, 0x3e,
    0x80, 0xb1, 0xb5, 0xbe, 0x45, 0x66, 0x6d, 0xbd, 0x43, 0x91, 0x4c, 0x3e,
    0x21, 0xe4, 0x1b, 0x3f, 0x98, 0xf5, 0x46, 0x3f, 0x76, 0x98, 0x12, 0x3f,
    0x33, 0x12, 0x41, 0xbe, 0x63, 0x5f, 0xb3, 0x3d, 0x42, 0xbe, 0x90, 0x3d,
    0x79, 0xb6, 0xa1, 0x3e, 0x5b, 0xcc, 0x3a, 0x3e, 0x7d, 0xac, 0xd7, 0x3d,
    0x69, 0x24, 0x90, 0x3e, 0x6a, 0x54, 0xbd, 0x3d, 0x32, 0xd9, 0xec, 0x3d,
    0xb2, 0x21, 0x99, 0x3d, 0xe0, 0xcb, 0x16, 0x3f, 0x35, 0x46, 0x23, 0xbf,
    0x48, 0x11, 0xb0, 0x3e, 0xb2, 0xd6, 0xbd, 0x3e, 0x39, 0x91, 0xc3, 0xbe,
    0x3b, 0x70, 0x15, 0xbd, 0x9c, 0x68, 0x00, 0xbf, 0x49, 0xd9, 0x9b, 0xbe,
    0x22, 0xf1, 0xab, 0x3e, 0x81, 0x86, 0x37, 0x3e, 0x1c, 0x7d, 0x0c, 0xbf,
    0xaf, 0x98, 0x03, 0xbe, 0xce, 0xbf, 0xf0, 0xbe, 0xe4, 0xf7, 0xd3, 0xbe,
    0xa2, 0x04, 0x48, 0x3e, 0xbc, 0x2e, 0x88, 0x3e, 0xaa, 0x8b, 0x8d, 0xbe,
    0x24, 0xd1, 0x38, 0xbe, 0xad, 0x3f, 0xc6, 0xbe, 0xc5, 0x41, 0x93, 0x3d,
    0xad, 0x0b, 0xa3, 0x3e, 0x47, 0xc3, 0x8c, 0x3e, 0xc8, 0xc7, 0x0d, 0x3f,
    0x8a, 0xeb, 0xc3, 0xbe, 0xb3, 0x5b, 0x15, 0xbf, 0x44, 0x09, 0x8c, 0x3e,
    0x87, 0xea, 0xa8, 0x3e, 0x37, 0x14, 0xb7, 0x3e, 0xae, 0xa0, 0xe4, 0x3e,
    0x5f, 0x8d, 0xf2, 0xbe, 0x42, 0xc3, 0x16, 0x3e, 0xe6, 0x89, 0x2b, 0x3e,
    0xaf, 0x96, 0x1d, 0xbe, 0x6b, 0xb3, 0x6b, 0x3e, 0x83, 0x32, 0x11, 0x3f,
    0x1e, 0x77, 0xc9, 0xbe, 0x7f, 0x6e, 0x37, 0xbf, 0x36, 0xff, 0xff, 0xff,
    0x04, 0x00, 0x00, 0x00, 0x10, 0x00, 0x00, 0x00, 0x01, 0x00, 0x00, 0x00,
    0xc6, 0x00, 0x00, 0x00, 0x01, 0x00, 0x00, 0x00, 0x03, 0x00, 0x00, 0x00,
    0x52, 0xff, 0xff, 0xff, 0x04, 0x00, 0x00, 0x00, 0x0c, 0x00, 0x00, 0x00,
    0x0a, 0x3b, 0xe6, 0x3d, 0x72, 0xa1, 0x4d, 0x3e, 0xb2, 0x73, 0xfe, 0x3d,
    0x30, 0xf7, 0xff, 0xff, 0x34, 0xf7, 0xff, 0xff, 0x0f, 0x00, 0x00, 0x00,
    0x4d, 0x4c, 0x49, 0x52, 0x20, 0x43, 0x6f, 0x6e, 0x76, 0x65, 0x72, 0x74,
    0x65, 0x64, 0x2e, 0x00, 0x01, 0x00, 0x00, 0x00, 0x14, 0x00, 0x00, 0x00,
    0x00, 0x00, 0x0e, 0x00, 0x18, 0x00, 0x14, 0x00, 0x10, 0x00, 0x0c, 0x00,
    0x08, 0x00, 0x04, 0x00, 0x0e, 0x00, 0x00, 0x00, 0x14, 0x00, 0x00, 0x00,
    0x1c, 0x00, 0x00, 0x00, 0x04, 0x02, 0x00, 0x00, 0x08, 0x02, 0x00, 0x00,
    0x0c, 0x02, 0x00, 0x00, 0x04, 0x00, 0x00, 0x00, 0x6d, 0x61, 0x69, 0x6e,
    0x00, 0x00, 0x00, 0x00, 0x08, 0x00, 0x00, 0x00, 0xc8, 0x01, 0x00, 0x00,
    0x68, 0x01, 0x00, 0x00, 0x34, 0x01, 0x00, 0x00, 0xe0, 0x00, 0x00, 0x00,
    0xbc, 0x00, 0x00, 0x00, 0x78, 0x00, 0x00, 0x00, 0x40, 0x00, 0x00, 0x00,
    0x04, 0x00, 0x00, 0x00, 0xc2, 0xfe, 0xff, 0xff, 0x1c, 0x00, 0x00, 0x00,
    0x00, 0x00, 0x00, 0x09, 0x1c, 0x00, 0x00, 0x00, 0x20, 0x00, 0x00, 0x00,
    0x04, 0x00, 0x00, 0x00, 0x00, 0x00, 0x06, 0x00, 0x08, 0x00, 0x04, 0x00,
    0x06, 0x00, 0x00, 0x00, 0x00, 0x00, 0x80, 0x3f, 0x01, 0x00, 0x00, 0x00,
    0x11, 0x00, 0x00, 0x00, 0x01, 0x00, 0x00, 0x00, 0x10, 0x00, 0x00, 0x00,
    0xfa, 0xfe, 0xff, 0xff, 0x14, 0x00, 0x00, 0x00, 0x00, 0x00, 0x00, 0x08,
    0x10, 0x00, 0x00, 0x00, 0x14, 0x00, 0x00, 0x00, 0x03, 0x00, 0x00, 0x00,
    0xfc, 0xf7, 0xff, 0xff, 0x01, 0x00, 0x00, 0x00, 0x10, 0x00, 0x00, 0x00,
    0x03, 0x00, 0x00, 0x00, 0x0f, 0x00, 0x00, 0x00, 0x04, 0x00, 0x00, 0x00,
    0x06, 0x00, 0x00, 0x00, 0x2e, 0xff, 0xff, 0xff, 0x1c, 0x00, 0x00, 0x00,
    0x00, 0x00, 0x00, 0x08, 0x1c, 0x00, 0x00, 0x00, 0x20, 0x00, 0x00, 0x00,
    0x03, 0x00, 0x00, 0x00, 0x00, 0x00, 0x06, 0x00, 0x08, 0x00, 0x07, 0x00,
    0x06, 0x00, 0x00, 0x00, 0x00, 0x00, 0x00, 0x01, 0x01, 0x00, 0x00, 0x00,
    0x0f, 0x00, 0x00, 0x00, 0x03, 0x00, 0x00, 0x00, 0x0e, 0x00, 0x00, 0x00,
    0x05, 0x00, 0x00, 0x00, 0x07, 0x00, 0x00, 0x00, 0x0e, 0xff, 0xff, 0xff,
    0x08, 0x00, 0x00, 0x00, 0x0c, 0x00, 0x00, 0x00, 0x01, 0x00, 0x00, 0x00,
    0x0e, 0x00, 0x00, 0x00, 0x02, 0x00, 0x00, 0x00, 0x0d, 0x00, 0x00, 0x00,
    0x08, 0x00, 0x00, 0x00, 0x8e, 0xff, 0xff, 0xff, 0x24, 0x00, 0x00, 0x00,
    0x00, 0x00, 0x00, 0x05, 0x34, 0x00, 0x00, 0x00, 0x38, 0x00, 0x00, 0x00,
    0x02, 0x00, 0x00, 0x00, 0x00, 0x00, 0x0e, 0x00, 0x18, 0x00, 0x17, 0x00,
    0x10, 0x00, 0x0c, 0x00, 0x08, 0x00, 0x04, 0x00, 0x0e, 0x00, 0x00, 0x00,
    0x02, 0x00, 0x00, 0x00, 0x01, 0x00, 0x00, 0x00, 0x02, 0x00, 0x00, 0x00,
    0x01, 0x00, 0x00, 0x00, 0x00, 0x00, 0x00, 0x01, 0x01, 0x00, 0x00, 0x00,
    0x0d, 0x00, 0x00, 0x00, 0x01, 0x00, 0x00, 0x00, 0x0c, 0x00, 0x00, 0x00,
    0x7e, 0xff, 0xff, 0xff, 0x08, 0x00, 0x00, 0x00, 0x0c, 0x00, 0x00, 0x00,
    0x01, 0x00, 0x00, 0x00, 0x0c, 0x00, 0x00, 0x00, 0x02, 0x00, 0x00, 0x00,
    0x0b, 0x00, 0x00, 0x00, 0x02, 0x00, 0x00, 0x00, 0x00, 0x00, 0x0e, 0x00,
    0x18, 0x00, 0x14, 0x00, 0x10, 0x00, 0x0c, 0x00, 0x0b, 0x00, 0x04, 0x00,
    0x0e, 0x00, 0x00, 0x00, 0x20, 0x00, 0x00, 0x00, 0x00, 0x00, 0x00, 0x01,
    0x2c, 0x00, 0x00, 0x00, 0x30, 0x00, 0x00, 0x00, 0x01, 0x00, 0x00, 0x00,
    0x0c, 0x00, 0x14, 0x00, 0x13, 0x00, 0x0c, 0x00, 0x08, 0x00, 0x07, 0x00,
    0x0c, 0x00, 0x00, 0x00, 0x00, 0x00, 0x00, 0x01, 0x01, 0x00, 0x00, 0x00,
    0x01, 0x00, 0x00, 0x00, 0x00, 0x00, 0x00, 0x01, 0x01, 0x00, 0x00, 0x00,
    0x0b, 0x00, 0x00, 0x00, 0x03, 0x00, 0x00, 0x00, 0x0a, 0x00, 0x00, 0x00,
    0x03, 0x00, 0x00, 0x00, 0x01, 0x00, 0x00, 0x00, 0x00, 0x00, 0x0a, 0x00,
    0x0c, 0x00, 0x00, 0x00, 0x08, 0x00, 0x04, 0x00, 0x0a, 0x00, 0x00, 0x00,
    0x08, 0x00, 0x00, 0x00, 0x0c, 0x00, 0x00, 0x00, 0x01, 0x00, 0x00, 0x00,
    0x0a, 0x00, 0x00, 0x00, 0x02, 0x00, 0x00, 0x00, 0x00, 0x00, 0x00, 0x00,
    0x09, 0x00, 0x00, 0x00, 0x01, 0x00, 0x00, 0x00, 0x11, 0x00, 0x00, 0x00,
    0x01, 0x00, 0x00, 0x00, 0x00, 0x00, 0x00, 0x00, 0x12, 0x00, 0x00, 0x00,
    0x60, 0x06, 0x00, 0x00, 0x0c, 0x06, 0x00, 0x00, 0xcc, 0x05, 0x00, 0x00,
    0x6c, 0x05, 0x00, 0x00, 0x2c, 0x05, 0x00, 0x00, 0xec, 0x04, 0x00, 0x00,
    0xb0, 0x04, 0x00, 0x00, 0x74, 0x04, 0x00, 0x00, 0x34, 0x04, 0x00, 0x00,
    0xd4, 0x03, 0x00, 0x00, 0x68, 0x03, 0x00, 0x00, 0x94, 0x02, 0x00, 0x00,
    0x24, 0x02, 0x00, 0x00, 0xb8, 0x01, 0x00, 0x00, 0x60, 0x01, 0x00, 0x00,
    0xc8, 0x00, 0x00, 0x00, 0x50, 0x00, 0x00, 0x00, 0x04, 0x00, 0x00, 0x00,
    0xfe, 0xf9, 0xff, 0xff, 0x00, 0x00, 0x00, 0x01, 0x10, 0x00, 0x00, 0x00,
    0x10, 0x00, 0x00, 0x00, 0x12, 0x00, 0x00, 0x00, 0x28, 0x00, 0x00, 0x00,
    0xe8, 0xf9, 0xff, 0xff, 0x19, 0x00, 0x00, 0x00, 0x53, 0x74, 0x61, 0x74,
    0x65, 0x66, 0x75, 0x6c, 0x50, 0x61, 0x72, 0x74, 0x69, 0x74, 0x69, 0x6f,
    0x6e, 0x65, 0x64, 0x43, 0x61, 0x6c, 0x6c, 0x3a, 0x30, 0x00, 0x00, 0x00,
    0x02, 0x00, 0x00, 0x00, 0x01, 0x00, 0x00, 0x00, 0x03, 0x00, 0x00, 0x00,
    0x46, 0xfa, 0xff, 0xff, 0x00, 0x00, 0x00, 0x01, 0x10, 0x00, 0x00, 0x00,
    0x10, 0x00, 0x00, 0x00, 0x11, 0x00, 0x00, 0x00, 0x54, 0x00, 0x00, 0x00,
    0x30, 0xfa, 0xff, 0xff, 0x46, 0x00, 0x00, 0x00, 0x73, 0x65, 0x71, 0x75,
    0x65, 0x6e, 0x74, 0x69, 0x61, 0x6c, 0x5f, 0x31, 0x39, 0x2f, 0x64, 0x65,
    0x6e, 0x73, 0x65, 0x5f, 0x44, 0x65, 0x6e, 0x73, 0x65, 0x33, 0x38, 0x2f,
    0x4d, 0x61, 0x74, 0x4d, 0x75, 0x6c, 0x3b, 0x73, 0x65, 0x71, 0x75, 0x65,
    0x6e, 0x74, 0x69, 0x61, 0x6c, 0x5f, 0x31, 0x39, 0x2f, 0x64, 0x65, 0x6e,
    0x73, 0x65, 0x5f, 0x44, 0x65, 0x6e, 0x73, 0x65, 0x33, 0x38, 0x2f, 0x42,
    0x69, 0x61, 0x73, 0x41, 0x64, 0x64, 0x00, 0x00, 0x02, 0x00, 0x00, 0x00,
    0x01, 0x00, 0x00, 0x00, 0x03, 0x00, 0x00, 0x00, 0xba, 0xfa, 0xff, 0xff,
    0x00, 0x00, 0x00, 0x01, 0x10, 0x00, 0x00, 0x00, 0x10, 0x00, 0x00, 0x00,
    0x10, 0x00, 0x00, 0x00, 0x74, 0x00, 0x00, 0x00, 0xa4, 0xfa, 0xff, 0xff,
    0x67, 0x00, 0x00, 0x00, 0x73, 0x65, 0x71, 0x75, 0x65, 0x6e, 0x74, 0x69,
    0x61, 0x6c, 0x5f, 0x31, 0x39, 0x2f, 0x64, 0x65, 0x6e, 0x73, 0x65, 0x5f,
    0x44, 0x65, 0x6e, 0x73, 0x65, 0x33, 0x37, 0x2f, 0x4d, 0x61, 0x74, 0x4d,
    0x75, 0x6c, 0x3b, 0x73, 0x65, 0x71, 0x75, 0x65, 0x6e, 0x74, 0x69, 0x61,
    0x6c, 0x5f, 0x31, 0x39, 0x2f, 0x64, 0x65, 0x6e, 0x73, 0x65, 0x5f, 0x44,
    0x65, 0x6e, 0x73, 0x65, 0x33, 0x37, 0x2f, 0x52, 0x65, 0x6c, 0x75, 0x3b,
    0x73, 0x65, 0x71, 0x75, 0x65, 0x6e, 0x74, 0x69, 0x61, 0x6c, 0x5f, 0x31,
    0x39, 0x2f, 0x64, 0x65, 0x6e, 0x73, 0x65, 0x5f, 0x44, 0x65, 0x6e, 0x73,
    0x65, 0x33, 0x37, 0x2f, 0x42, 0x69, 0x61, 0x73, 0x41, 0x64, 0x64, 0x00,
    0x02, 0x00, 0x00, 0x00, 0x01, 0x00, 0x00, 0x00, 0x06, 0x00, 0x00, 0x00,
    0x4e, 0xfb, 0xff, 0xff, 0x00, 0x00, 0x00, 0x01, 0x10, 0x00, 0x00, 0x00,
    0x10, 0x00, 0x00, 0x00, 0x0f, 0x00, 0x00, 0x00, 0x34, 0x00, 0x00, 0x00,
    0x38, 0xfb, 0xff, 0xff, 0x27, 0x00, 0x00, 0x00, 0x73, 0x65, 0x71, 0x75,
    0x65, 0x6e, 0x74, 0x69, 0x61, 0x6c, 0x5f, 0x31, 0x39, 0x2f, 0x66, 0x6c,
    0x61, 0x74, 0x74, 0x65, 0x6e, 0x5f, 0x46, 0x6c, 0x61, 0x74, 0x74, 0x65,
    0x6e, 0x31, 0x39, 0x2f, 0x52, 0x65, 0x73, 0x68, 0x61, 0x70, 0x65, 0x00,
    0x02, 0x00, 0x00, 0x00, 0x01, 0x00, 0x00, 0x00, 0x29, 0x01, 0x00, 0x00,
    0xa2, 0xfb, 0xff, 0xff, 0x00, 0x00, 0x00, 0x01, 0x10, 0x00, 0x00, 0x00,
    0x10, 0x00, 0x00, 0x00, 0x0e, 0x00, 0x00, 0x00, 0x40, 0x00, 0x00, 0x00,
    0x8c, 0xfb, 0xff, 0xff, 0x32, 0x00, 0x00, 0x00, 0x73, 0x65, 0x71, 0x75,
    0x65, 0x6e, 0x74, 0x69, 0x61, 0x6c, 0x5f, 0x31, 0x39, 0x2f, 0x6d, 0x61,
    0x78, 0x5f, 0x70, 0x6f, 0x6f, 0x6c, 0x69, 0x6e, 0x67, 0x31, 0x64, 0x5f,
    0x4d, 0x61, 0x78, 0x50, 0x6f, 0x6f, 0x6c, 0x69, 0x6e, 0x67, 0x31, 0x44,
    0x31, 0x39, 0x2f, 0x4d, 0x61, 0x78, 0x50, 0x6f, 0x6f, 0x6c, 0x00, 0x00,
    0x04, 0x00, 0x00, 0x00, 0x01, 0x00, 0x00, 0x00, 0x63, 0x00, 0x00, 0x00,
    0x01, 0x00, 0x00, 0x00, 0x03, 0x00, 0x00, 0x00, 0x0a, 0xfc, 0xff, 0xff,
    0x00, 0x00, 0x00, 0x01, 0x10, 0x00, 0x00, 0x00, 0x10, 0x00, 0x00, 0x00,
    0x0d, 0x00, 0x00, 0x00, 0x44, 0x00, 0x00, 0x00, 0xf4, 0xfb, 0xff, 0xff,
    0x35, 0x00, 0x00, 0x00, 0x73, 0x65, 0x71, 0x75, 0x65, 0x6e, 0x74, 0x69,
    0x61, 0x6c, 0x5f, 0x31, 0x39, 0x2f, 0x6d, 0x61, 0x78, 0x5f, 0x70, 0x6f,
    0x6f, 0x6c, 0x69, 0x6e, 0x67, 0x31, 0x64, 0x5f, 0x4d, 0x61, 0x78, 0x50,
    0x6f, 0x6f, 0x6c, 0x69, 0x6e, 0x67, 0x31, 0x44, 0x31, 0x39, 0x2f, 0x45,
    0x78, 0x70, 0x61, 0x6e, 0x64, 0x44, 0x69, 0x6d, 0x73, 0x00, 0x00, 0x00,
    0x04, 0x00, 0x00, 0x00, 0x01, 0x00, 0x00, 0x00, 0xc6, 0x00, 0x00, 0x00,
    0x01, 0x00, 0x00, 0x00, 0x03, 0x00, 0x00, 0x00, 0x76, 0xfc, 0xff, 0xff,
    0x00, 0x00, 0x00, 0x01, 0x10, 0x00, 0x00, 0x00, 0x10, 0x00, 0x00, 0x00,
    0x0c, 0x00, 0x00, 0x00, 0xa8, 0x00, 0x00, 0x00, 0x60, 0xfc, 0xff, 0xff,
    0x9b, 0x00, 0x00, 0x00, 0x73, 0x65, 0x71, 0x75, 0x65, 0x6e, 0x74, 0x69,
    0x61, 0x6c, 0x5f, 0x31, 0x39, 0x2f, 0x63, 0x6f, 0x6e, 0x76, 0x31, 0x64,
    0x5f, 0x43, 0x6f, 0x6e, 0x76, 0x31, 0x44, 0x31, 0x39, 0x2f, 0x52, 0x65,
    0x6c, 0x75, 0x3b, 0x73, 0x65, 0x71, 0x75, 0x65, 0x6e, 0x74, 0x69, 0x61,
    0x6c, 0x5f, 0x31, 0x39, 0x2f, 0x63, 0x6f, 0x6e, 0x76, 0x31, 0x64, 0x5f,
    0x43, 0x6f, 0x6e, 0x76, 0x31, 0x44, 0x31, 0x39, 0x2f, 0x42, 0x69, 0x61,
    0x73, 0x41, 0x64, 0x64, 0x3b, 0x73, 0x65, 0x71, 0x75, 0x65, 0x6e, 0x74,
    0x69, 0x61, 0x6c, 0x5f, 0x31, 0x39, 0x2f, 0x63, 0x6f, 0x6e, 0x76, 0x31,
    0x64, 0x5f, 0x43, 0x6f, 0x6e, 0x76, 0x31, 0x44, 0x31, 0x39, 0x2f, 0x43,
    0x6f, 0x6e, 0x76, 0x31, 0x44, 0x2f, 0x53, 0x71, 0x75, 0x65, 0x65, 0x7a,
    0x65, 0x3b, 0x3b, 0x73, 0x65, 0x71, 0x75, 0x65, 0x6e, 0x74, 0x69, 0x61,
    0x6c, 0x5f, 0x31, 0x39, 0x2f, 0x63, 0x6f, 0x6e, 0x76, 0x31, 0x64, 0x5f,
    0x43, 0x6f, 0x6e, 0x76, 0x31, 0x44, 0x31, 0x39, 0x2f, 0x43, 0x6f, 0x6e,
    0x76, 0x31, 0x44, 0x00, 0x04, 0x00, 0x00, 0x00, 0x01, 0x00, 0x00, 0x00,
    0x01, 0x00, 0x00, 0x00, 0xc6, 0x00, 0x00, 0x00, 0x03, 0x00, 0x00, 0x00,
    0x46, 0xfd, 0xff, 0xff, 0x00, 0x00, 0x00, 0x01, 0x10, 0x00, 0x00, 0x00,
    0x10, 0x00, 0x00, 0x00, 0x0b, 0x00, 0x00, 0x00, 0x40, 0x00, 0x00, 0x00,
    0x30, 0xfd, 0xff, 0xff, 0x30, 0x00, 0x00, 0x00, 0x73, 0x65, 0x71, 0x75,
    0x65, 0x6e, 0x74, 0x69, 0x61, 0x6c, 0x5f, 0x31, 0x39, 0x2f, 0x63, 0x6f,
    0x6e, 0x76, 0x31, 0x64, 0x5f, 0x43, 0x6f, 0x6e, 0x76, 0x31, 0x44, 0x31,
    0x39, 0x2f, 0x43, 0x6f, 0x6e, 0x76, 0x31, 0x44, 0x2f, 0x45, 0x78, 0x70,
    0x61, 0x6e, 0x64, 0x44, 0x69, 0x6d, 0x73, 0x31, 0x00, 0x00, 0x00, 0x00,
    0x04, 0x00, 0x00, 0x00, 0x01, 0x00, 0x00, 0x00, 0x01, 0x00, 0x00, 0x00,
    0xc8, 0x00, 0x00, 0x00, 0x06, 0x00, 0x00, 0x00, 0x3a, 0xfe, 0xff, 0xff,
    0x00, 0x00, 0x00, 0x01, 0x14, 0x00, 0x00, 0x00, 0x14, 0x00, 0x00, 0x00,
    0x0a, 0x00, 0x00, 0x00, 0x00, 0x00, 0x00, 0x02, 0x3c, 0x00, 0x00, 0x00,
    0x9c, 0xfd, 0xff, 0xff, 0x2f, 0x00, 0x00, 0x00, 0x73, 0x65, 0x71, 0x75,
    0x65, 0x6e, 0x74, 0x69, 0x61, 0x6c, 0x5f, 0x31, 0x39, 0x2f, 0x63, 0x6f,
    0x6e, 0x76, 0x31, 0x64, 0x5f, 0x43, 0x6f, 0x6e, 0x76, 0x31, 0x44, 0x31,
    0x39, 0x2f, 0x43, 0x6f, 0x6e, 0x76, 0x31, 0x44, 0x2f, 0x45, 0x78, 0x70,
    0x61, 0x6e, 0x64, 0x44, 0x69, 0x6d, 0x73, 0x00, 0x01, 0x00, 0x00, 0x00,
    0x04, 0x00, 0x00, 0x00, 0x96, 0xfe, 0xff, 0xff, 0x00, 0x00, 0x00, 0x01,
    0x14, 0x00, 0x00, 0x00, 0x14, 0x00, 0x00, 0x00, 0x09, 0x00, 0x00, 0x00,
    0x00, 0x00, 0x00, 0x02, 0x1c, 0x00, 0x00, 0x00, 0xf8, 0xfd, 0xff, 0xff,
    0x0f, 0x00, 0x00, 0x00, 0x61, 0x72, 0x69, 0x74, 0x68, 0x2e, 0x63, 0x6f,
    0x6e, 0x73, 0x74, 0x61, 0x6e, 0x74, 0x37, 0x00, 0x01, 0x00, 0x00, 0x00,
    0x02, 0x00, 0x00, 0x00, 0x46, 0xfe, 0xff, 0xff, 0x00, 0x00, 0x00, 0x01,
    0x10, 0x00, 0x00, 0x00, 0x10, 0x00, 0x00, 0x00, 0x08, 0x00, 0x00, 0x00,
    0x1c, 0x00, 0x00, 0x00, 0x30, 0xfe, 0xff, 0xff, 0x0f, 0x00, 0x00, 0x00,
    0x61, 0x72, 0x69, 0x74, 0x68, 0x2e, 0x63, 0x6f, 0x6e, 0x73, 0x74, 0x61,
    0x6e, 0x74, 0x36, 0x00, 0x01, 0x00, 0x00, 0x00, 0x06, 0x00, 0x00, 0x00,
    0x7e, 0xfe, 0xff, 0xff, 0x00, 0x00, 0x00, 0x01, 0x10, 0x00, 0x00, 0x00,
    0x10, 0x00, 0x00, 0x00, 0x07, 0x00, 0x00, 0x00, 0x1c, 0x00, 0x00, 0x00,
    0x68, 0xfe, 0xff, 0xff, 0x0f, 0x00, 0x00, 0x00, 0x61, 0x72, 0x69, 0x74,
    0x68, 0x2e, 0x63, 0x6f, 0x6e, 0x73, 0x74, 0x61, 0x6e, 0x74, 0x35, 0x00,
    0x01, 0x00, 0x00, 0x00, 0x03, 0x00, 0x00, 0x00, 0xb6, 0xfe, 0xff, 0xff,
    0x00, 0x00, 0x00, 0x01, 0x10, 0x00, 0x00, 0x00, 0x10, 0x00, 0x00, 0x00,
    0x06, 0x00, 0x00, 0x00, 0x1c, 0x00, 0x00, 0x00, 0xa0, 0xfe, 0xff, 0xff,
    0x0f, 0x00, 0x00, 0x00, 0x61, 0x72, 0x69, 0x74, 0x68, 0x2e, 0x63, 0x6f,
    0x6e, 0x73, 0x74, 0x61, 0x6e, 0x74, 0x34, 0x00, 0x02, 0x00, 0x00, 0x00,
    0x06, 0x00, 0x00, 0x00, 0x29, 0x01, 0x00, 0x00, 0xf2, 0xfe, 0xff, 0xff,
    0x00, 0x00, 0x00, 0x01, 0x10, 0x00, 0x00, 0x00, 0x10, 0x00, 0x00, 0x00,
    0x05, 0x00, 0x00, 0x00, 0x1c, 0x00, 0x00, 0x00, 0xdc, 0xfe, 0xff, 0xff,
    0x0f, 0x00, 0x00, 0x00, 0x61, 0x72, 0x69, 0x74, 0x68, 0x2e, 0x63, 0x6f,
    0x6e, 0x73, 0x74, 0x61, 0x6e, 0x74, 0x33, 0x00, 0x02, 0x00, 0x00, 0x00,
    0x03, 0x00, 0x00, 0x00, 0x06, 0x00, 0x00, 0x00, 0x2e, 0xff, 0xff, 0xff,
    0x00, 0x00, 0x00, 0x01, 0x10, 0x00, 0x00, 0x00, 0x10, 0x00, 0x00, 0x00,
    0x04, 0x00, 0x00, 0x00, 0x1c, 0x00, 0x00, 0x00, 0x18, 0xff, 0xff, 0xff,
    0x0f, 0x00, 0x00, 0x00, 0x61, 0x72, 0x69, 0x74, 0x68, 0x2e, 0x63, 0x6f,
    0x6e, 0x73, 0x74, 0x61, 0x6e, 0x74, 0x32, 0x00, 0x04, 0x00, 0x00, 0x00,
    0x03, 0x00, 0x00, 0x00, 0x01, 0x00, 0x00, 0x00, 0x03, 0x00, 0x00, 0x00,
    0x06, 0x00, 0x00, 0x00, 0x00, 0x00, 0x16, 0x00, 0x1c, 0x00, 0x18, 0x00,
    0x17, 0x00, 0x10, 0x00, 0x0c, 0x00, 0x08, 0x00, 0x00, 0x00, 0x00, 0x00,
    0x00, 0x00, 0x07, 0x00, 0x16, 0x00, 0x00, 0x00, 0x00, 0x00, 0x00, 0x01,
    0x14, 0x00, 0x00, 0x00, 0x14, 0x00, 0x00, 0x00, 0x03, 0x00, 0x00, 0x00,
    0x00, 0x00, 0x00, 0x02, 0x1c, 0x00, 0x00, 0x00, 0x78, 0xff, 0xff, 0xff,
    0x0f, 0x00, 0x00, 0x00, 0x61, 0x72, 0x69, 0x74, 0x68, 0x2e, 0x63, 0x6f,
    0x6e, 0x73, 0x74, 0x61, 0x6e, 0x74, 0x31, 0x00, 0x01, 0x00, 0x00, 0x00,
    0x04, 0x00, 0x00, 0x00, 0xc6, 0xff, 0xff, 0xff, 0x00, 0x00, 0x00, 0x01,
    0x10, 0x00, 0x00, 0x00, 0x10, 0x00, 0x00, 0x00, 0x02, 0x00, 0x00, 0x00,
    0x1c, 0x00, 0x00, 0x00, 0xb0, 0xff, 0xff, 0xff, 0x0e, 0x00, 0x00, 0x00,
    0x61, 0x72, 0x69, 0x74, 0x68, 0x2e, 0x63, 0x6f, 0x6e, 0x73, 0x74, 0x61,
    0x6e, 0x74, 0x00, 0x00, 0x01, 0x00, 0x00, 0x00, 0x03, 0x00, 0x00, 0x00,
    0x00, 0x00, 0x16, 0x00, 0x18, 0x00, 0x14, 0x00, 0x00, 0x00, 0x10, 0x00,
    0x0c, 0x00, 0x08, 0x00, 0x00, 0x00, 0x00, 0x00, 0x00, 0x00, 0x07, 0x00,
    0x16, 0x00, 0x00, 0x00, 0x00, 0x00, 0x00, 0x01, 0x14, 0x00, 0x00, 0x00,
    0x14, 0x00, 0x00, 0x00, 0x01, 0x00, 0x00, 0x00, 0x38, 0x00, 0x00, 0x00,
    0x04, 0x00, 0x04, 0x00, 0x04, 0x00, 0x00, 0x00, 0x27, 0x00, 0x00, 0x00,
    0x73, 0x65, 0x72, 0x76, 0x69, 0x6e, 0x67, 0x5f, 0x64, 0x65, 0x66, 0x61,
    0x75, 0x6c, 0x74, 0x5f, 0x63, 0x6f, 0x6e, 0x76, 0x31, 0x64, 0x5f, 0x43,
    0x6f, 0x6e, 0x76, 0x31, 0x44, 0x31, 0x39, 0x5f, 0x69, 0x6e, 0x70, 0x75,
    0x74, 0x3a, 0x30, 0x00, 0x03, 0x00, 0x00, 0x00, 0x01, 0x00, 0x00, 0x00,
    0xc8, 0x00, 0x00, 0x00, 0x06, 0x00, 0x00, 0x00, 0x05, 0x00, 0x00, 0x00,
    0x50, 0x00, 0x00, 0x00, 0x34, 0x00, 0x00, 0x00, 0x24, 0x00, 0x00, 0x00,
    0x14, 0x00, 0x00, 0x00, 0x04, 0x00, 0x00, 0x00, 0xd0, 0xff, 0xff, 0xff,
    0x19, 0x00, 0x00, 0x00, 0x00, 0x00, 0x00, 0x19, 0xdc, 0xff, 0xff, 0xff,
    0x09, 0x00, 0x00, 0x00, 0x00, 0x00, 0x00, 0x09, 0xe8, 0xff, 0xff, 0xff,
    0x11, 0x00, 0x00, 0x00, 0x00, 0x00, 0x00, 0x11, 0xf4, 0xff, 0xff, 0xff,
    0x03, 0x00, 0x00, 0x00, 0x00, 0x00, 0x00, 0x03, 0x0c, 0x00, 0x0c, 0x00,
    0x0b, 0x00, 0x00, 0x00, 0x00, 0x00, 0x04, 0x00, 0x0c, 0x00, 0x00, 0x00,
    0x16, 0x00, 0x00, 0x00, 0x00, 0x00, 0x00, 0x16};
unsigned int g_model_len = 10580;
